#version: 0.2
Ġ Ġ
ĠĠ ĠĠ
i n
ĠĠ Ġ
r e
Ġ t
Ġ a
s t
e r
o n
o r
a t
Ġ =
e n
ĠĠĠĠ ĠĠĠ
s e
d e
h e
r a
Ġ p
Ġ c
Ġ i
Ġ f
Ġ in
l e
Ġ re
i t
Ġt he
a r
Ġ n
u m
a l
r o
Ġ s
u r
r in
c t
) :
t h
m e
Ġ Ċ
ĠĠĠĠ ĠĠĠĠ
i on
l i
at e
g e
Ġ o
n d
u t
m p
Ġt o
en t
ur n
Ġ '
t urn
Ġ m
de f
l f
Ġ d
Ġ P
c e
se lf
s s
Ġre turn
Ġ w
Ġ e
y th
or t
yth on
l a
Ġ "
rin t
li st
Ġf or
in g
ĠĠĠĠ ĠĠĠĠĠĠĠ
l o
u n
ĠP ython
u e
u l
Ġo f
r i
Ġ b
t e
Ġ #
o de
or d
Ġ st
Ġ 1
Ġi f
- -
at a
Ġn um
rin g
a n
er s
Ġa nd
Ġ g
a me
mp ort
o m
Ġ [
Ġ +
Ġ self
i v
( )
' ,
c h
Ġ l
Ġ ra
ct ion
d i
Ġp ro
# #
e s
_ _
Ġ 0
x t
a p
re ate
a d
u s
) )
it e
p ut
ra m
Ġt h
Ġ list
Ġp rint
ro m
Ġ (
i l
o l
v al
ul t
en d
p rint
Ġi s
c k
g ram
i f
n um
o t
Ġnum b
e d
Ġa r
Ġ= =
( "
at ion
( '
p t
m a
e l
m ent
v er
Ġ T
ge t
i d
i s
" ,
q u
re s
u p
Ġd ata
C reate
w ord
c o
Ġpro gram
i mport
i z
Ġst ring
n ame
i g
n ge
Ġa n
Ġ 2
= =
e t
la ss
Ġ def
a ge
i le
' )
' :
t er
it h
Ġra nge
-- --
ode l
k e
in d
ĠĠĠĠĠĠĠĠ ĠĠĠĠĠĠĠ
v e
Ġ se
h t
a s
iv en
st ring
f or
Ġre s
Ġ F
Ġth at
Ġc o
Ġ y
d ata
Ġg iven
Ġc on
Ġm a
i c
ap p
un t
en er
Ġ -
Ġ {
t o
' ]
Ġw ord
Ġa l
Ġl en
p e
un ction
in e
val ue
" )
r ite
ĠĠ Ċ
Ġa s
Ġ S
q ue
le ment
ra y
Ġ C
Ġt e
ener ate
Ġi mport
nd om
f rom
## ##
" "
u b
i m
Ġ us
0 0
a b
Ġc h
c on
re n
Ġ h
ĠĠĠĠĠĠĠĠ ĠĠĠĠĠĠĠĠ
[ '
Ġf unction
Ġ 3
iz e
Ġ de
Ġnumb er
Ġ x
ke y
ar r
e w
l en
on e
a se
i me
ra in
Ġe l
i st
i r
Ġres ult
Ġp a
Ġel se
p o
] )
Ġ I
W rite
p a
Ġ N
e ct
] ,
lo w
Ġ j
p l
Ġma x
Ġ <
en ce
Ġnumb ers
Ġw ith
o d
ar t
Ġ A
Ġ me
app end
Ġ+ =
o w
Ġf rom
te xt
at h
st r
que st
ut put
r ue
t a
v i
m o
ar y
c i
Ġ 5
Ġra ndom
Ġ %
ĉ ĉ
p er
Ġn ot
di ct
m at
in t
Ġ *
Ġar r
c ri
ra ct
Ġc lass
m odel
Ġin put
p y
num b
la y
Ġc ode
se t
al l
Ġ v
Ġ __
g th
== ==
Ġ L
te st
cri pt
ur l
s er
Ġ D
Ġ value
de x
Ġs um
Ġt w
Ġp o
ĠĠĠĠ Ċ
ro w
Ġ[ ]
Ġar ray
---- ----
Ġ >
R e
d d
Ġm odel
a c
c lass
Ġw h
ren t
Ġ 4
o u
Ġ get
Ġs ort
al c
" :
m s
p re
e x
i b
Ġe x
ab le
Ġre quest
word s
Ġt a
Ġe lement
Ġn ame
mp le
Ġ or
i al
Ġf ind
Ġ le
alc ul
i p
ar d
al se
r y
j ect
Ġ B
pl it
p ro
Ġi t
Ġal l
Ġ G
Ġtw o
iv e
] [
c om
Ġc ur
h o
Ġb e
he ck
Ġ M
Ġword s
ct or
p on
Ġd i
b o
ent ence
it y
Ġ lo
Ġst r
g or
Ġ O
( ):
ge st
t rain
ce s
= '
Ġco unt
Ġw e
Ġn ew
y pe
Ġg enerate
Ġse t
alcul ate
res ult
Ġn p
ad d
li c
u re
e xt
u ct
#### ####
Ġus ing
g s
s on
) ,
Ġ key
o p
m l
Ġi te
Ġte xt
/ /
ut e
Ġ1 0
re e
ar n
Ġp ython
it le
o re
ĠĠĠĠ Ġ
Ġp re
ri me
ce ss
li f
ĠN one
ss word
an ce
in put
k en
pon se
ĠT rue
t ime
o up
c ur
Ġ r
o ur
in it
a ract
en c
co unt
w e
ĠF alse
G enerate
Ġ u
Ġ la
Ġc ol
n s
ĠĠĠĠĠĠĠĠ ĠĠĠĠĠĠĠĠĠĠĠ
f ile
s um
__ (
c s
Ġs cript
ar ch
Ġus er
Ġ" ""
Ġ on
ig n
s plit
a mple
Ġ E
d ate
ar ray
Ġc om
s ort
Ġe lif
p h
f t
Ġm in
k es
b ject
p ath
s h
ĠT he
Ġ 8
numb ers
if y
Ġ k
ver se
Ġf ile
th od
ss ion
Ġ he
li b
= "
a re
Ġs ub
( [
Ġm o
Ġta kes
Ġa re
Ġa dd
il d
Ġc reate
f e
gor ith
y s
u st
ht ml
b el
Ġc alculate
ma x
Ġm at
i es
a ch
Ġite m
gorith m
t p
Ġ :
for m
ss age
Ġb o
Ġ 6
) ):
ma il
in dex
Ġa p
Ġch aract
I n
g ht
Ġo utput
ro ot
a nd
re ad
Ġrequest s
a ck
re qu
Ġal gorithm
co re
r or
t ent
Ġ{ }
m on
Ġ Create
Ġte st
an g
mo ve
f f
Ġc heck
Ġco mp
p ar
if i
ri x
le arn
1 0
D e
Ġs k
re d
Ġ up
s it
Ġwe b
um ent
ra me
Ġt ime
Ġb y
ta in
ri ght
te g
len gth
Ġ U
ction ary
pt ion
==== ====
pt im
. .
Ġstring s
f ind
ver t
Ġcur rent
Ġin to
la s
m in
ul d
Ġu se
ation s
ht tp
u ra
ir st
l y
t ri
Ġ row
at or
ib on
ac ci
ibon acci
t al
el d
h is
Ġ W
in k
Ġwh ile
j o
ma in
iz er
"" "
f it
numb er
i eld
Ġ Re
Ġ qu
Ġsk learn
o c
Ġ end
Ġ R
d uct
u g
Ġe ach
T he
Ġin t
m b
g re
lay er
on gest
Ġlen gth
n e
ig ht
Ġto tal
o k
en se
Ġn e
Ġch ar
o ut
) .
Ġ 7
E R
Ġme thod
ĠO utput
n ode
d a
Ġs entence
for mat
" ]
i ment
il l
b ase
Ġl ine
Ġs ho
Ġp d
ri ce
t itle
Ġsort ed
Ġf a
T rue
ite ms
Ġt rain
im um
Ġ H
Ġo ut
c ol
Ġf ol
th er
S T
ra ns
u d
t ers
low er
-------- --------
S t
us er
Ġin teg
s ize
f o
ra ndom
num s
Ġ 9
er y
: //
Ġelement s
ent iment
Ġp rime
Ġj son
Ġsho uld
ite m
p la
d b
en s
! =
qu ence
Ġ /
t ype
Ġdi ctionary
m y
e c
Ġn ode
Ġ un
Ġfol low
Ġc an
Ġreturn s
s ub
o i
Ġp er
D es
e a
l ine
Ġa c
cs v
Ġin dex
las k
Ġs c
to ken
Ġ !=
ou nd
s c
ar get
Ġa t
lo t
C on
f a
Ġ _
b in
Ġ val
l t
jo in
le s
lo p
Ġ' '
ch ar
t y
ĠI n
Ġre verse
st art
o g
Ġfollow ing
[ :
e lement
ord er
] :
č Ċ
i x
Ġap p
c l
e st
Des ign
* *
o f
s entence
Ġcon tain
Ġres ponse
ifi er
Ġpa ssword
ar i
Ġst art
l d
ate s
Ġo bject
c y
Ġte mp
Ġvalue s
u th
i ch
'] )
ve lop
at ure
v en
la bel
at ing
Ġ[ '
ction s
an t
if ul
ut iful
ĠC o
he ad
w w
ce pt
() )
######## ########
Ġs pe
Ġ{ '
u res
ea utiful
L ist
it s
Ġf irst
con d
Ġo s
S oup
Ġs er
et we
eautiful Soup
st ate
etwe en
a ve
O N
n g
el s
Ġd ate
te d
Ġ en
or k
ar gs
Ġwh ich
pa ssword
Ġ }
f ig
Ġl ongest
Ġy ou
Ġse arch
ĠB eautifulSoup
l st
t r
) ]
u ild
" .
i ck
pla ce
Ġnum py
[ "
o s
lo ad
< /
b le
Ġb etween
Ġp ar
ig h
a y
lo g
o ck
Ġth is
y e
oi ce
st ance
res ponse
i de
Ġs h
mp lement
De velop
at ures
our ce
lo c
P I
Ġre move
a m
g ument
Ġe xt
c ura
Ġcharact ers
m it
I N
as k
re q
co mp
cura cy
er as
c ode
Ġcon vert
p ort
enc y
j son
Ġd ist
bo ard
i que
a v
di r
ust om
Ġ )
Ġh as
n ew
le t
Ġdata set
se s
de d
vi ce
ers ion
it ial
Ġst ore
Ġle t
n ext
Ġw ill
2 0
or ld
r ror
Ġf il
o b
Ġp ath
Ġ X
re ss
ma nd
el lo
ve ctor
T his
Ġprint s
e m
lo at
] .
ver age
. _
re turn
E rror
s core
ex ample
p lay
m al
ro up
Ġd is
p en
ma ge
Ġ url
lo se
a in
on g
value s
um n
ion s
A T
Ġt itle
or s
s cript
Ġ order
Ġp age
Ġb ase
e p
Ġo ptim
H ello
Ġ V
ct iv
Ġf e
Ġe mail
me ssage
p rime
' s
d f
at ter
Ġbo ard
ib le
ĠĠĠĠĠĠĠĠ ĠĠĠĠĠĠĠĠĠĠĠĠĠĠĠ
E T
o me
ar gest
po int
E n
requ ency
a k
ri ver
Ġt able
Ġt arget
ap e
res ent
con tent
u le
Ġpro duct
re ct
a ult
lic ation
ĠP rint
l l
ind ow
p lot
le ft
b y
v ent
ĠĠĠĠĠĠĠĠ Ċ
o st
E S
Ġ2 0
string s
d ing
Ġ root
Ġmat rix
Ġinteg ers
f il
Ġi d
Ġcharact er
c ase
Ġ[ "
Ġto ken
ĠĠĠĠĠĠĠĠĠĠĠĠĠĠĠĠ ĠĠĠĠĠĠĠĠĠĠĠĠĠĠĠĠ
Ġ lib
Ġm ult
Ġ1 00
Ġv ari
te mp
ch oice
ow n
b ut
Ġ J
Ġs entiment
N ame
up lic
er t
if ic
Ġa ge
ang o
cur s
Ġit s
Ġpo sit
__ ':
ro me
Ġ' __
' ))
lt k
Ġ ro
po p
Ġme ssage
i se
Ġmax imum
gre ssion
ser t
pre dict
u age
er ror
ra nd
pl t
vi ew
g ra
er ge
1 00
al ind
ate d
Ġnum s
w ork
le ction
Ġdata base
sort ed
http s
con n
Ġlo g
Ġ< =
St ring
Ġl ink
Ġ one
in ary
Ġs oup
ĠĠĠĠ ĠĠ
Ġext ract
l at
p age
p rice
1 2
Ġm y
ĠF lask
q l
Ġt ype
c re
: ",
d it
se arch
Ġla bel
' }
ate gor
Ġr un
Ġmo st
'] ,
======== ========
Â ł
nd as
c ord
ra w
ec ute
u de
en ame
mat rix
Ġpo int
a g
Ġ" "
re f
alind rome
Ġhe ad
ĠI f
Ġ enc
Ġn ltk
t rans
Ġan y
lo ck
a st
', '
Ġlib ra
Ġ `
ar k
Ġlo op
S E
Ġpa ndas
A R
Ġclass ify
Ġ( '
Ġ z
se d
pro cess
ĠG et
Ġo pen
C o
Ġd o
ĠS e
Ġpre dict
id th
ud ent
an ge
Ġl st
L E
Ġd iv
Ġse cond
Ġmethod s
Ġfa ctor
Ġspe c
] ]
li ent
O R
po sit
end ing
j ango
r un
ĠF ibonacci
Ġ K
Ġ right
Ġ" ,
Ġcon tent
P ro
e mail
Ġs ol
a x
Ġe mp
d iv
Ġb re
script ion
ĠD e
ug h
me an
iz ed
Ġresult s
' .
ng uage
ro ugh
Ġg ra
R L
ot al
o utput
in fo
Ġth rough
Ġval id
Ġo ver
o bject
in es
lay ers
mb da
Ġre ad
t able
di f
ic al
ĠA PI
= ['
Ġh ave
ri d
ol d
c he
le d
' '
par ser
ss ert
( (
atter n
Ġar gument
el se
od ule
in ter
se quence
oc ument
Ġ" )
ect or
Ġcom mon
ĠRe turn
Ġqu ery
C lass
w ith
Ġt ry
al ue
ĠT his
Ġle ft
S e
w rite
Ġbre ak
Ġs ys
arn ing
â Ģ
at ive
Ġfor mat
Ġ[ [
Ġar gs
qu al
ren ce
at us
Ġsc ra
s ite
Ġt f
Ġs y
Ġp layer
M L
itial ize
Ġe ven
t on
Ġd if
Ġg re
u al
Ġex cept
ustom er
N T
Ġt ree
ption s
i ent
st em
ĉĉ ĉ
di an
ow els
Ġo ther
() ,
N um
nd er
Ġw he
mo unt
ĠC on
str uct
h n
s o
ul ation
rame ters
Ġ li
Ġs u
par se
Ġite ms
uth or
Ġvari able
Ġcom mand
ĠĠĠĠĠĠĠĠ Ġ
Ġlet ter
ar g
D ata
m ut
s p
Ġc or
ut ion
Ġdi ct
Ġl argest
qu are
pre ssion
at er
m ap
Ġf ound
ap i
Ġ Y
p p
le ct
co res
Ġa ctiv
Ġth an
Ġun ique
Ġse quence
I T
R E
Ġs core
Ġme an
i red
r it
ers on
di ctions
a gram
Ġ ent
Ġ //
il s
Ġ \
() .
En ter
v el
Ġo per
Ġma ke
pa ram
] ))
ar s
pro duct
ĠS t
qu ery
le te
ww w
ĠT o
ĠC heck
lo b
Ġpo st
t ree
ri ces
Ġ1 2
di g
Ġw rite
Ġb inary
l p
Ġdis play
ho st
Ġ vector
ĠH T
l s
Ġm erge
p s
Ġp rice
Ġa verage
Ġinteg er
F alse
c al
Ġn ext
rand int
N one
t otal
un ter
Ġb s
(' /
C h
Ġmult ip
", "
ang le
6 4
T o
ro ute
Ġs ize
m d
p resent
Ġd f
val u
p ython
que ue
Ġpa ss
R O
A r
t en
ta g
} ,
Ġp y
Ġthe ir
Ġm id
et s
w h
C T
re l
Ġg ame
Ġp art
ter ate
y z
re quest
c or
o hn
st ri
Ġf loat
po st
k eras
Ġd b
val id
ex ecute
Ġma in
uplic ates
Ġactiv ation
l er
ĠN ode
Ġpo p
Ġ> =
Ġcur r
ci i
Ġ |
Ġd ig
a ke
en v
re place
te ct
model s
A L
ri es
key s
Ġc all
pre d
F ield
f ield
t ing
Ġcon n
---------------- ----------------
Ġlist s
f ix
cur rent
d er
Ġi mplement
ĠD river
D E
com mon
cl ude
ra nge
Ġla nguage
or y
Ġin ter
vi e
Re gression
2 5
Ġt ra
b er
c lose
Ġup date
le ase
od y
Ġdate time
l ate
Ġdef ault
Ġla st
Ġt k
Ġf requency
di us
Ġ- =
Ġf lask
in al
all y
Ġ1 1
Ġare a
ic ense
Ġpar se
end er
{ }
ĠL o
. __
M e
ĠU RL
I mplement
f req
g roup
Ġ* *
" ))
Ġcontain s
c le
Ġ2 5
f ine
Ġcol umn
i us
l ink
Ġ1 5
sh ape
Ġpro vi
ĠE x
fe rence
Ġ'' '
u ff
Ġre present
ĠW orld
ĠF unction
Ġapp lication
lo ye
Ġy our
e mp
g ative
as cii
b ot
curs or
Ġuse d
u nd
ctor y
pa ck
trans form
P O
ĠP ro
is ion
im al
Ġv ersion
s pe
Ġto p
con fig
ip p
Ġac curacy
id x
Ġqu ick
Ġemp ty
J ohn
Ġs o
et ch
Ġre qu
form ation
t d
o us
ent ial
ic le
Ġbo ok
D ense
R es
Ġd ocument
c ent
Ġpro cess
Ġfactor ial
Ġin st
Ġle arning
element s
3 2
Ġline ar
Ġfe atures
A B
b ug
)) )
Ġclass ifier
ĠL icense
requ ent
m ing
um ns
U T
. ")
{ '
te s
Ġweb site
################ ################
V alue
Ġ --
Ġ html
Ġo dd
un ct
Ġ lower
[ -
he d
le st
ph ab
Ġcontain ing
Ġbase d
et work
Ġp lt
la mbda
Ġtw e
al yz
Ġf ibonacci
Ġs n
Ġd p
Ġar t
res h
Ġk eras
ura l
g n
ĠC alculate
Con struct
he l
Ġ( "
fe atures
Class ifier
or g
pl y
mal lest
c at
Ġh and
valu ate
b ack
i re
ch ild
Ġbe st
Ġup per
E lement
V ector
y n
ch aract
ĠHT ML
Ġ' )
up per
f ul
Ġra ise
Ġ' ,
il ity
as ic
Ġmat ch
ifi ed
ci es
c reate
me thod
Ġn o
Ġde c
S ON
ĠĠĠĠĠĠĠĠĠĠĠĠĠĠĠĠ ĠĠĠĠĠĠĠĠ
bo ok
ens or
av a
: ]
c a
Ġ @
Ġt ask
Ġp h
is ible
ub lic
ĠIn itialize
Ġser ver
er ature
he it
al ary
ren heit
Ġon ly
' ):
v ersion
Ġt rans
ce ption
ac curacy
di ction
Ġsub string
h renheit
ol s
Ġdef ine
s pa
Ġpa rameters
Ġposit ion
Ġlibra ry
ĠDe fine
at tr
Ġo c
b s
c heck
s oup
00 0
Ġde tect
ptim ize
Ġlabel s
Ġenc ry
Ġthe m
ine ar
Ġdi re
Ġdist ance
s w
or mal
n ot
s v
Ġc ap
di s
ist ic
.. .
r ate
un c
Ġmin imum
iv ot
Ġde p
9 9
E N
Ġm an
te red
Ġfil ter
d u
i mage
Ġco st
ific ation
: -
le m
Ġcon t
dig its
c ap
o se
Ġpa rent
Ġex pression
ff ic
Ġadd ress
Ġjson ify
f low
n p
Ġy e
w idth
Ġm ath
Ġcon fig
add ress
in stance
Ġst ate
Ġv owels
in s
st atus
Ġm odule
tri cs
g en
s ing
t arget
Ġin formation
Ġst ack
ren ces
ta ct
ne ction
phab et
Ġs ql
conn ect
n o
Ġv is
5 0
g rid
Ġ error
Ġs ource
ser ver
Âł Âł
rel u
p layer
ĠĠĠĠ ĠĠĊ
se lection
ro ss
Ġcom bin
ob j
f rame
i mple
ite d
Ġm ark
: ',
h er
l ongest
Ġth en
el l
name s
Ġta ke
igh b
A C
E x
m id
Ġper mut
ra p
Ġin sert
') .
ĠA dd
s ource
sh ow
Ġpoint s
D i
w indow
Vector izer
1 1
A n
de p
ar ity
po s
Ġcomp ute
co st
Ġstr uct
d o
ath er
[: ,
Ġid ent
! ")
a mp
c d
p i
ch ine
ĠI terate
s cores
ss ible
Ġex ist
point s
gra ph
. "
I D
I d
t ry
Ġb uild
ĠG enerate
Ġfile s
le an
ĠS plit
loye e
a ssert
p es
Ġs plit
ĉĉ ĉĉ
S ort
Ġ ver
Ġc ategor
Ġc ustomer
token ize
ye ar
comp ile
Q L
re move
ut ton
ight s
da y
w are
} )
Ġhe lp
x x
Ġ .
de scription
Ġc al
it al
Ġs pa
ĠT rain
bo x
ĠJ SON
Ġgre ater
f unction
f irst
data set
Ġcount s
user name
Ġpar ser
n er
s ample
um er
ut f
Ġb asic
iz ation
Ġme dian
enc ode
F ile
Ġcol or
P ython
q r
unct u
f loat
Ġm ore
Ġ3 0
ment s
ĠL inear
g ame
w args
or m
Ġs ame
line ar
Ġsn ipp
I C
M E
Ġreverse d
n ing
at ch
ĠT est
Ġus ers
Ġh igh
m i
Ġa mount
stri p
g o
Ġf ield
fil ename
h as
p ted
) -
h at
Ġp alindrome
it ion
al ance
qu ential
ĠCo unt
he st
Ġst udent
Ġ'' .
ffic ient
us h
Ġan agram
tri b
re verse
st ack
') ,
( __
b ody
Ġtrain ing
a ndom
to p
Ġper form
Ġargument s
Ġp la
let ters
= (
L O
s entiment
Ġ low
li sh
om ial
Num ber
P o
Ġre place
Ġta g
fe ature
Ġwhe ther
Ġmodel s
Ġpre dictions
la st
co me
Ġde lete
c cess
Ġa bo
de s
def ault
ĠM ake
Ġcomp ut
g er
ig hest
g enerate
w o
Ġp attern
Ġi ter
ub ble
00 00
Ġset s
ĠCo mp
r c
om ain
Ġoptim ize
Ġsnipp et
Ġc ase
Ġf req
Ġe qual
Ġma chine
own load
wh ile
ĠLo ad
Ġt er
T P
st er
en u
ul ar
Ġh ost
Ġoc cur
T ree
v es
G ET
l ines
Ġg en
Ġg roup
plot lib
t f
are a
t s
Ġt up
it ies
Ġs up
Ġs quare
Ġst ock
di stance
Ġ< /
ci al
1 5
n k
) +
B uild
p ol
M ax
c lf
re g
Ġsql ite
s ys
Ġg o
Ġde scription
Ġposit ive
posit ion
Ġdif fe
Ġ Q
Ġa v
Ġch ild
charact ers
a ys
e y
Ġs im
Ġ" ))
ĠS et
Ġpo ssible
[: :-
view s
O ptimize
c ategor
e ven
x ml
us r
ĠA r
Ġrow s
char s
param s
PO ST
Ġt ri
Ġ' .
p ri
Ġvariable s
hel lo
s ide
t ask
in sert
Ġi mage
Ġf it
Ġmo vie
Ġre cord
di m
Ġmo ve
Ġlibra ries
3 0
Ġth ree
ne ss
Ġin clude
count s
S ER
Ġp ivot
Ġpa ir
che s
a ct
Ġ ,
at ic
Ġar g
ust er
label s
================ ================
lob al
N A
m ine
Ġs ample
ock et
Ġlet ters
ĠLinear Regression
) ;
L en
Ġre g
Ġkey s
1 4
S um
m an
Ġs mallest
ĠĠĠĠĠĠĠĠ ĠĠĠĠĊ
ĠĠĠ Ċ
le ctions
un ique
Ġ{ "
Ġye ar
f requency
h and
t ra
Ġc l
ens ion
els ius
loc al
G iven
i ply
Ġc lient
ir on
Ġmat plotlib
Ġrequ ired
n el
ur ation
Ġe vent
Ġ" __
__ )
im g
Ġenc ode
P a
i e
pa rent
g ing
r u
en cies
Ġfunction s
Ġcol umns
las ses
alyz er
Ġa x
Ġs ide
__ ":
dif y
ĠĠĠĠĠĠĠĠ ĠĠĠĠĠ
Ġw indow
Ġfe ature
unctu ation
I ON
a ction
Ġc lose
Ġse en
ip her
b e
Ġde ter
Ġdig its
Di ct
Ġo b
ĠP re
ĠĠĠĠĠĠĠĠĠĠĠĠĠĠĠĠ ĠĠĠĠĠĠĠĠĠĠĠ
p attern
it er
Ġo ptions
'' '
a res
d jango
m ode
s end
Ġt ensor
cess ary
s y
Ġf o
Ġm on
ĠL ist
sub string
lat ten
Ġdiffe rent
C an
I S
p r
t xt
v ol
Ġ queue
Ġre nder
Ġco mple
mo st
op en
s ol
ro p
Ġs ome
Ġname s
ĠM ult
Ġpre v
Ġsy stem
] +
m ary
Ġp resent
Ġex ample
Ġcol lections
Ġspec ified
T ype
Ġhe ight
let ter
t he
de bug
Ġstruct ure
' t
Ġ ]
re st
Ġa ction
at s
i o
ore st
Co mp
1 6
F rame
e k
on t
ar gument
Ġw idth
ĠI mport
Ġcomp are
fa ctor
Ġspec ific
" ])
N B
N ode
f ibonacci
p alindrome
st d
se ction
Ġg ue
up date
Ġj ob
Ġlo ad
Ġdire ctory
] ])
Ġre mo
Ġfil ename
cre t
N e
e vent
s ign
ent ro
Ġl ong
id f
pe ct
mat ch
n t
Ġn etwork
ss ing
umer ate
N U
d s
ĠF ind
S S
ĠĠĠĠĠĠĠĠ ĠĠĠĠ
Ġh ighest
Ġpa ck
Ġen v
he ight
te m
fa ce
ble m
Ġsu ch
Ġpop ulation
Ġtensor flow
Ġs ing
Ġst op
an a
tri but
Ġen umerate
Ġtoken s
ighb ors
0 1
H O
a verage
Ġe qu
ĠL og
T ext
de vice
ra dius
app le
loc ation
Ġscra per
( -
Y ou
a le
a uthor
d uplicates
ra l
ul l
di st
ft ware
4 5
C ol
d oc
Ġw as
ver y
Ġu nder
Ġser ies
ay es
Ġwhe re
O T
p art
Ġfor m
Ġb ack
'] .
ta ils
row s
Ġwh en
Ġbo th
Ġne cessary
S ub
Ġs w
ir cle
date time
= [
n a
} ')
Ġal phabet
Ġde sc
Ġwith out
str u
Ġsol ution
Ġdiv isible
I L
M o
di ctionary
Ġch ange
Ġinst all
c lient
c ending
qu ares
Ġprovi ded
d en
k wargs
Ġin stance
v ed
Ġp erson
ab ility
Ġlink s
field s
qr t
ĠCount Vectorizer
t we
Ġpa ram
S er
U R
Ġ Ð
ra ction
li mit
uplic ate
Ġcal led
- %
: ")
T est
Ġre v
Ġb lock
py plot
ĠD ata
Ġpermut ations
. """
R A
S et
n et
n ow
Ġa d
ing s
ener ator
Ġne ed
col or
pop ulation
Len gth
tribut es
T ime
la g
ac he
E D
a uth
Ġa ut
co py
du ce
Ġanagram s
b lock
po ch
we b
! "
# !
i k
w ard
Ġp ort
ĠA N
pro per
com mit
Ġhas h
process ing
Ġmerge d
Ġprogram ming
Ġsol ve
u se
Ġb ot
ad ata
Ġuser name
Ġcont in
e lif
h ref
i a
he ap
Ġc v
token s
Ġtemp erature
Ġident ify
a it
in omial
al ys
la ble
di a
Ġth read
ĠS ort
alys is
Ġa uthor
Ġ5 0
H T
H e
o ptions
le vel
um e
ad er
. ')
l argest
ener al
Ġ3 2
tri e
Ġne gative
RO M
Res ult
E ST
b uild
Ġd jango
pro ject
Ġlo c
Ar ray
Ġvis ited
Ġ http
Ġa ss
Ġp rices
um ps
Ġs m
an ces
co ding
ĠR andom
Ġobject s
ĠSe quential
Ġmultip le
M at
b ar
se ssion
ar ies
ut il
Ġco py
ic les
pa ir
ĠCo unter
cor rect
In put
arg v
rit er
Ġsing le
E X
E Y
o ther
se q
Ġc sv
Ġde st
ĠRe ad
3 3
Ġm ode
Ġscra pe
c ity
Ġ{} ".
C H
M A
u z
Ġf requent
ma ke
age s
pre dictions
([ [
bin ary
load s
fil ter
E dit
U sing
at bot
ar se
Ġcon dit
but ton
v ing
Ġthe re
ut es
Ġpro blem
Ġvector izer
a mount
o ptim
u les
col umn
Ġcor rect
Ġhand le
sw er
8 0
a i
s or
Ġc ipher
Ġ' /
Ġ1 6
di ces
ab el
ac cess
ES S
Ġent er
uz z
f ter
t wo
an ana
ĠI t
Ġme trics
" ],
D O
t ies
se c
Ġi m
Ġs imple
ĠĠĠĠĠĠĠĠ ĠĠ
end s
com mand
LE CT
o ver
Ġ âĢ
re en
Ġin itial
ri but
Ġpro per
Ġ2 00
Ġse lect
vi de
ip el
ĠReturn s
Ġli ke
Ġlower case
#! /
t adata
Ġre trie
Ġis instance
Ġcon nection
Ġcontin ue
b alance
re ating
Ġc md
ut ils
Ġm od
* (
F a
c ast
u id
Ġp ad
Ġre gression
Ġw orld
sp an
ow er
temp late
Ġph one
ipel ine
i loc
in f
Ġi mp
it ude
ro und
Ġw in
an s
Ġde vice
U L
ro ll
Ġs p
ir d
IN G
st udent
la nd
Ġra dius
il y
read y
gre ss
Ġser vice
AT E
ĠMult inomial
! ')
D B
M odel
Ġc alcul
xt ract
ĠC ode
Ġfind s
ĠU se
o ff
ĉ Ċ
Ġa ssert
se cret
Ġre curs
Ġor ig
ry pt
Ġtime s
Ġdeter mine
1 3
f s
s k
z er
} ")
st op
Ġn on
ul ate
an y
Ġal low
Ġdist ribut
* -
c all
Ġ layer
de st
Ġ" \
Ġ[ ],
C O
m ark
t k
Ġp lot
Ġc ustom
Ġm ust
ith er
Ġdig it
ms g
Ġhe re
gra de
12 3
SE LECT
uff le
Ġax is
entro py
. '
f ore
di ent
': '
ĠS ta
vi es
ph one
ĠJ ava
spa ce
d le
p date
Ġd uplicates
ĠF ROM
Ġas cending
ist er
pon ding
Ġsh ow
Ġfil tered
v ar
Ġo ption
Ġpo s
and ler
ant ity
ĠV alue
Ġmult iply
ĠMultinomial NB
A c
B o
N o
s qrt
Ġa bs
Ġe very
Ġnum er
vi ous
requ encies
Ġne ural
ari able
4 2
p us
y le
Ġ quest
ra n
ce iv
Ġ- *-
bo se
.. ..
A S
D ir
f requent
re cord
Ġc lean
ur se
class ifier
Ġcalculate s
c li
c md
f unc
Ġn ormal
Ġw ork
Ġe dit
id s
Ġpre diction
file s
Ġ} ,
Ġdo es
Ġabo ut
( {'
C om
P AT
p unctuation
ro l
di ff
ĠI D
com m
In t
In dex
Ġnode s
Ġsh ort
Ġlink ed
Ġoper ator
Ġart icle
trib ute
ĠLog istic
A N
Ġin cre
") .
og le
Ġ100 0
Ġcor res
D I
c ross
s quare
z e
Ġf rame
ĠF a
ĠG eneral
Ġcur sor
Ġla mbda
Ġfa st
d own
al f
Ġb ut
to ols
ab c
Ġinput s
ust ers
Ġap pro
) /
. *
c ustomer
i ed
Ġ &
st ock
en g
Ġc lasses
Ġf etch
ge x
ĠP ublic
Ġ" +
Ġoutput s
dep th
poch s
l ing
st amp
ch ange
ap s
il arity
Ġal ready
ĠI s
od d
Ġsort ing
Ġspe cial
" >
F orest
] ):
d river
Ġs cores
Ġ" .
ĠY ou
Ġmon th
S V
e ded
g in
s ql
Ġp ri
Ġin cl
Ġ' --
Ġe ither
is ode
ĠI NT
ex cept
ĠG NU
ĠEx ception
Ġcorres ponding
S cript
Ġb u
Ġcon tact
Con vert
Ġlog ging
ting s
Ġcap ital
iron ment
" ):
C D
H andler
f etch
Ġa g
he re
Ġc lf
Ġin itialize
Ġd ays
ĠP arse
Ġb ubble
Ġra w
ĠA I
ĠE xtract
Ġprime s
Ġat tributes
ty pes
Ġtri angle
2 4
K EY
P lease
s alary
ck et
Ġch atbot
ĠĠĠĠĠĠĠĠĠĠĠĠĠĠĠĠ ĠĠ
ĠD o
Ġwe ights
ph a
U RL
p rices
t up
Ġs ci
Ġg cd
ad am
lic ense
) [
E qual
H ER
P ath
U ser
e b
Ġc ell
Ġw rit
te rest
Ġ1 3
our ces
1 9
F ibonacci
o res
s g
Ġs alary
ĠĠĠĠĠĠĠĠ ĠĠĠĠĠĠ
Ġac cess
Ġemail s
L I
v ers
Ġc lo
list s
ĠS entiment
ub e
mb ed
ĠPro gram
t ract
ĠS QL
vi ces
row n
Ġclose st
Ġal so
") ,
Ġch oice
Ġchar s
da ys
Ġ ):
Ġt rue
st ore
se cond
Ġm i
Ġd oc
rame ter
Ġproduct s
Ġtk inter
ĠRandom Forest
7 8
U n
Ġ' -
Ġe valuate
Ġclass ification
ext raction
Ġurl lib
Ġgra de
Ġupper case
W hat
a les
v owels
Ġp e
Ġ" /
an agram
ĠU ser
Ġsu ccess
ĠLogistic Regression
, "
C ode
Ġs end
Ġg lobal
Ġde l
ens ity
by tes
Ġz ip
Ġgra ph
Ch ar
Ġencry pted
Ġcombin ations
K ey
O f
R I
Ġa fter
Ġn th
as h
Ġco ding
Ġex ec
ep s
Co unt
Se arch
d rop
m ult
w d
la nguage
lo op
ri s
ma g
Ġcon st
Ġde tails
result s
Ġdif f
child ren
( {
( ['
b ound
s rc
t le
de lete
An alyzer
A dd
P T
h igh
s m
Ġin fo
al s
Ġpro ject
Ġse par
Ġ4 0
Ġac cept
object s
âĢ Ļ
Me ssage
Ġbook s
Ġaut om
r ating
Ġf lag
Ġe pochs
Ġ[ (
us ers
'] [
": "
lic y
Ġcheck s
Ġuse s
resh ape
resh old
Ġcomput er
Ġparam s
: %
b ability
Ġl ines
ction aries
Ġan other
Ġco unter
'] ]
Re quest
we ight
ug gest
ĠIn put
Ġli mit
dis play
assert Equal
cross entropy
A D
\ .
e fficient
m odule
Ġs ave
)) ,
ĠD ense
pre fix
Ġle ast
Ġencry pt
+ =
h i
Ġp ub
ĠĠĠĠĠĠĠĠ ĠĠĊ
Ġe fficient
ic s
jo b
Ġsentence s
w ise
Ġ ord
om in
ap er
id ual
con f
ĠN um
ĠB o
W ord
st all
on ent
lo ss
Ġl at
ile d
ĠF it
ĠĠĠĠĠĠĠĠĠĠĠĠĠĠĠĠ ĠĠĠĠĠĠĠĠĠĠĠĠĠĠĠ
pre diction
ex it
sum er
Ġk n
Ġob j
proper ty
A l
S QL
l in
o te
Ð ¾
at ural
num er
Ġlo ss
we ather
Ġmultip lication
ik i
I tem
c ard
p u
Ġt y
Ġp lay
Ġp ush
ur s
Ġd ay
Ġd uplicate
ce ll
Ġb utton
Ġan alysis
as ing
100 0
pect ed
9 0
] *
b a
m er
Ġs ign
(' \
Ġwith in
ac ity
com bin
Ġpre vious
Int ensity
) **
d omain
o ption
Ġ ì
de v
ce ls
if t
(" \
ind er
set s
ex p
ud o
Ġconn ect
Ġsup port
2 1
a u
me trics
Ġst d
ĠD ec
log in
posit ive
Ġencode d
Ġretrie ve
PAT H
ĠIs land
ĠSentiment Intensity
cels ius
P ar
c m
Ġdi ctionaries
mon th
teg er
St r
dif ied
Ġoper ation
Ġoper ations
Ġtask s
ĠSentimentIntensity Analyzer
4 0
A P
C S
P rime
` `
Ġp ol
di re
con t
ĠA pp
ĠM y
Ġfactor s
sequence s
Ġpair s
> "
A PI
t om
Ġp ower
Ġre t
'] :
Ġap i
Ġexist ing
Ġfield s
Ġdesc ending
o pt
Ð µ
le ep
im ize
Ġgenerate s
Ġ: :
prime s
'} )
cent er
Ġver bose
Ġcategor ies
optim izer
T h
it ch
ro po
li ce
Ġst atus
iz ing
Ġan swer
Ġex p
Ġle ss
Ġpla ce
mbed ding
a f
m ar
v m
Ġc ard
Ġi p
Ġo ur
Ġ2 8
Ġch r
Ġcreate s
fil tered
der r
Ġenv ironment
ĠValue Error
ropo ut
( *
U N
b anana
i an
u x
z ip
Ġa uth
Ġst ores
Ġh ist
ink ed
product s
Ġtup le
omin ator
/ '
B y
d ot
d og
m erge
in ation
Ġs ent
Ġd ownload
ĠP a
Ġ" -
el y
'] ['
ist s
Ġkey word
ĠU pdate
lower case
fa hrenheit
G et
H E
c u
Ġ q
Ġ ...
Ġc ar
Ġf ib
Ġ" %
Ġ" <
et a
Ġy ield
data base
Ġcon text
ĠD jango
ĠO R
'} ,
Ġdiv is
ĠCon vert
Ġprovi de
Ġgue ss
A pp
Ġi terate
ĠP erson
Ġw o
ord in
---- --
unt il
url s
Ġex ecute
ry pted
Data Frame
Ġtwe et
has h
Ġcl uster
C K
U S
al er
Ġd ir
la nk
is h
art icle
we ights
Ġlength s
dig it
Ġtwe ets
= {
> <
d ocument
e ch
Ġs quares
Ġo p
rom an
con tain
per mut
Ġsort s
Ġlo cal
Ġwe ight
Ġdiv ide
Ġtup les
Col umn
? )
O r
S cal
s ig
re am
Ġc t
ir t
ext end
In fo
ne gative
Ġtitle s
content s
post s
A ge
F F
V al
m enu
de c
Ġ' %
Ġ' {
ou se
Ġmo dify
Ġap pe
Ġat tr
vector izer
Ġspa m
Ġloc ation
c alculate
s up
ra se
Ġf unc
Ġb atch
an nel
ĠI N
OR T
Ġpy game
rap per
/ %
F unction
L abel
T rans
a ctiv
b u
d l
g ender
s im
Ð ¸
Ġ $
de code
Ġc ity
Ġs ocket
li ed
Ġo ld
ut ral
ex pression
Ġr ating
main ing
head er
Ġdocument s
Ġcategor y
2 00
L e
O utput
b ayes
d umps
t mp
li s
ent ic
Ġ' ',
ss ors
Ġ1 7
Ġ- >
ĠA S
pre processing
Ġemp loyee
spa m
Ġter ms
Ġoccur rences
Ġrecord s
B utton
e lem
Ġre ceiv
um p
Ġ1 8
ĠT ext
as on
ĠC elsius
ĠĠĠĠĠĠĠĠĠĠĠĠĠĠĠĠ Ġ
]) ,
ĠM e
In correct
ĠR es
mb er
** **
ant s
so ft
AL U
categor ical
Ġmi ssing
Ġwo uld
B ase
m od
er r
Ġc raw
Ġc reating
Ġthe y
Ġe lem
Ġ1 4
ic ally
ĠN OT
cur r
col umns
head ers
Ġoptim ized
ĠSt ring
Ġimplement s
Ġim g
zer os
' \
' {
S ize
X X
le ss
it es
Ġs low
ct x
mp loyee
Ġst and
di c
Ġh ow
Ġde s
Re turn
Ġname d
Ġoptim izer
ag er
Ġart icles
Ġdec imal
xx xx
sol ution
O bject
b t
de sc
Ġf inal
ent er
ĠP o
Ġb rown
ĠF or
mo vie
Ġle vel
Ġtest ing
cord ing
Ġmid dle
Ġquick sort
gress or
ĠFa hrenheit
Par ser
1 8
p ip
s ave
Ð °
re a
ar m
ĠS V
Ġpa rameter
po se
Ġta gs
ĠM o
Ġsub ject
Ġsub process
Ġhead er
ĠSe e
old er
Ġpost s
ĠLo op
upper case
pol arity
local host
D F
F I
f idf
s u
u i
Ġf latten
Ġin d
Ġin dices
al ity
Ġm sg
id ent
Ġr ate
Ġend point
Ġac cording
Ġapp end
ĠCo py
! '
C A
c v
d raw
n n
z y
in ct
an k
Ġg ender
ĠC h
con tact
Ġv ol
ĠE valuate
book s
Ġfo x
Ġorig inal
ĠRandomForest Classifier
b ers
c ar
m n
n on
Ġc ircle
Ġd raw
Ġg rid
di o
ĠT fidf
pa ss
Ġread s
Ġtra verse
link s
hand le
Ġcomple x
na ive
/ {
D ist
P re
W indow
e py
h ist
Ġre pe
Ġre port
ut ive
Ġd river
Ġ1 9
id den
Ġ2 1
ĠS o
ab s
ĠB uild
Ġbe low
Ġmat ches
find all
sentence s
ong o
Ġsecond s
Ġtra ck
LO G
Ġsup er
ai lable
6 0
H ome
O P
m ily
n al
n ormal
w in
Ġb ody
id er
Ġx ml
Ġme m
str ong
op le
([ "
ĠV ector
ision Tree
HER E
W orld
c ache
i ce
re port
Ġt mp
er o
he x
me dian
di stri
ic ode
ens ions
ax is
AC E
Ġabo ve
Ġproper ties
irt ual
" }
c c
g ue
Ġw ant
ch ain
iz es
app ing
ĠN e
mo id
ci p
mb le
Ġvalid ate
Ġsy mb
cat en
Ġman age
Ġav g
ension al
Ġequ ation
isionTree Classifier
1 7
x label
re al
Ġa ct
me tadata
nd ard
la p
Ġ" _
Ġof f
Ġ2 4
Ġco urse
ser vice
Ġsub tract
ys ql
oi ces
ick et
Ġgra dient
emp ty
Ġso ftware
Ġtwe epy
j s
m ath
o lean
v is
x i
y label
la gs
Ġg ener
Ġpro bability
ĠA n
Ġ8 0
che d
Ġent ry
-------------------------------- --------------------------------
ĠEx ample
Ġperform ance
SER T
sec utive
ordin ates
" {
D AT
I P
] ['
f time
Ġf in
li m
ut er
Ġm ap
la ck
ĠĠĠĠĠĠĠĠĠĠĠĠĠĠĠĠ Ċ
ĠĠĠĠĠĠĠĠĠĠĠĠĠĠĠĠ ĠĠĠĠĠ
ĠL e
ĠM odel
ĠE n
Ġweb page
IN T
Ġinter section
25 6
ĠAN Y
ĠDo e
2 2
L o
U se
c b
o gram
y our
de l
Ġse lection
for ms
Ġj o
Ġbe en
ĠM ain
Ġ6 0
fit ness
ĠR EST
Ġdataset s
IT Y
AB LE
Ġdec ision
std out
twe et
EX T
fetch all
A t
N ot
h ow
p k
p erson
w orld
un it
gram ming
as ure
ĠC all
ew rite
comp ound
Ġro t
Ġhead ers
categor y
stru ctor
twe ets
M y
R NA
i res
w er
Ġ until
st yle
or ig
ro om
Ġdata frame
ĠL inked
add ing
input s
Ġ{} '.
cl uster
Ġoptim ization
mean s
Ġdif ference
so le
sample s
Po ol
pri ate
Scal er
I ST
U P
er nel
Ġd omain
ver ted
ĠT ra
Ġse ssion
ĠW AR
ĠR un
IN SERT
ĠHT TP
yn c
Ġav ailable
ĠPre dict
Ġshort est
+ +
G ER
M in
o id
at io
Ġf requencies
Ġn ow
Ġm ut
Ġd one
reate st
Ġde bug
Ġgenerate d
âĢ Ŀ
attr s
Ġpack age
Ser ver
ĠINT O
ALU ES
R ewrite
S I
a ut
d type
f g
f in
Ñ Ĥ
in ed
en e
se lect
le v
ĠT O
Ġcon f
con text
Ġh y
Ġh our
start s
'} ),
Ġcontent s
Ġdisplay s
spe ed
Ġexist s
Mo dify
Ġrecurs ive
Char Field
h en
Ġre maining
(' -
el come
Ġpre fix
sh ort
In ter
col s
alyz e
45 6
uzz le
Ġappro priate
aps ack
, -
I O
I t
I nd
L A
\ "
a e
b l
re lease
ur tle
Ġd og
et ing
Ġma y
con trib
str ftime
Ġsub strings
Ġ9 0
sy stem
Ġcondit ion
Ġdistribut ed
? ,
a a
c lo
p ublic
s ses
Â °
Ġ' <
Ġ' \
Ġst ats
ĠT ree
co gn
ta x
Ġrandom ly
ĠU n
ĠV ALUES
Ġid x
posit ory
Ġdep th
ĠJava Script
Ġstand ard
. ',
V ER
_ ='
b est
i ew
k it
Ġa m
ra ry
Ġc elsius
ur ch
Ġw ay
il t
(" %
co der
Ġh o
ci ssors
ud ing
sc reen
12 8
cor pus
Ġ25 5
Ġdep end
cap ital
vide o
lis hed
( _
E L
N ew
U I
U M
Ġre view
id get
Ġan imal
Ġ2 6
Ġlo ok
ĠO F
ore cast
ach ine
ator s
Ġqu antity
Ġat tribute
AR T
ĠSt udent
spe c
Ġgen e
vol ume
/ <
I mage
r ation
re h
Ġp i
Ġp ipeline
un k
Ġ( (
Ġ( -
ĠS to
ĠC om
ta gs
ĉĉ ĉĉĉ
tri c
Ġen g
Ġen coding
ĠTo ken
Ġiter tools
Home Dir
D ate
f n
o per
th ing
Ġ" --
Ġb log
() [
== '
ve c
pe dia
con nection
ial ize
are st
oc cur
ĠK ey
Sort ed
. ,
> '
> ',
F or
a ive
b it
c um
n ect
w iki
st derr
() ]
Ġse e
con sumer
ex ists
Ġwe ather
Ġnew s
pp ing
Ġpermut ation
Ġstop words
Ġmod ules
Ġquest ion
Ġwrit ten
soft max
ĠCopy right
urch ase
: ])
M P
P er
P ost
b all
k ing
Ġ Z
Ġre al
iv es
app y
ĠC lass
ĉĉ Ċ
per iment
ĠB ase
ph i
ĠW HERE
Ġpath s
temp erature
Ġrun ning
NA ME
Ġsm tp
Ac curacy
ĠTfidf Vectorizer
> \
p ng
er tain
Ġf ont
Ġn atural
ent ry
ĠP y
Ġb alance
te x
ĠI S
Ġex it
ho me
Ġcreate d
pla in
Ġac count
Ġstart ing
AB C
ighb or
sign al
RA NT
ĠSta ndard
bt n
ĠWAR RANT
starts with
P E
Q u
c ustom
} ".
Ġ utf
Ġre duce
al pha
Ġd on
Ġe d
Ġpro ces
end ar
Ġkey words
node s
Ġun it
email s
ĠComp ute
HT TP
Ġass ign
Ġcondit ions
Ð¾ Ð
C alculate
e le
g le
s ent
t c
th is
Ġ' *
Ġ2 2
Ġres pon
Ġco efficient
con st
Ġfind ing
Ġset tings
ĠE mployee
Ġadd ition
Ġcomp reh
Ġun sorted
Me ans
encode d
task s
Ġframe work
ites pa
ĠSo ftware
+ '
8 8
L ine
S uggest
i mag
s leep
w ay
or ity
li ght
Ġe p
an e
() ))
ram id
ĠĠĠĠĠĠĠĠĠĠĠĠĠĠĠĠ ĠĠĠĠ
ne ighbors
sc ale
Ġrequ ire
reg ister
ĠQ u
Ġsw ap
square d
0 5
F ind
V iew
e red
ra ph
Ġre f
ar ge
al og
Ġo pt
Ġ' ))
Ġst or
ĠS w
set up
Ġsum mary
Ġarray s
Ġbe fore
Ġla zy
sh uffle
St ate
av g
new s
Ġlog in
Ġerror s
mi ssion
Ġfit ness
Ġty pes
) *
/ "
7 5
= %
L og
t rue
Ġa li
Ġin div
Ġd im
ad min
ma c
text s
In valid
"] .
Ġper m
Ġsy n
loye es
charact er
) ])
: :
C lient
G o
Ġc ertain
ut ure
lay out
ex pr
ang uage
cl usters
Ġconvert s
istic s
Ġsim ilarity
den ominator
ĠâĢ ľ
combin ations
2 3
C heck
E nd
P layer
] ],
a es
b ine
g enerator
h alf
w ait
} '
Ã ©
ĠĠĠĠ ĠĊ
re views
st ed
er atures
Ġf ull
Ġs rc
Ġra nd
pt r
res ses
mo vies
Ġ* =
Ġhe l
sub ject
IL ITY
F orm
b re
b ed
d ownload
s mallest
s ocket
w x
st and
on es
or ange
Ġin terest
it ions
al phabet
Ġs he
Ġto ol
Ġb in
ĠF OR
con vert
ĠN ame
ĠA l
path s
=" ")
fa ult
Ġspe ed
Se quential
group s
Ġsm all
eng lish
sig moid
G E
J ava
R andom
i er
} /
Ġt urn
Ġc ross
th ree
th read
Ġ[ -
iv al
Ġde velop
]) ):
Ġbo x
gre g
ense mble
ER R
ĠĠĠĠĠĠĠĠĠĠĠĠĠĠĠĠĠĠĠĠĠĠĠĠĠĠĠĠĠĠĠĠ ĠĠ
Num bers
25 5
Ġstate ment
Ġincl uding
Ġclo th
Ġdivis or
5 5
C ON
F T
p ing
s age
Ġc ls
Ġs av
an oi
ĠF ound
Ġde code
ow el
row ser
ĠG ET
Ġcol lection
Ġmo vies
Ġne eded
ĠIn itial
dir name
Ġtoken ize
Ġro und
Ch ild
DE F
################################ ################################
ĠAr gs
dim ensional
act ive
Ġarg parse
Ġcalcul ator
N N
[ ['
m strong
w arning
y stem
Ġre ct
ĠP ost
ss ue
Ġg reatest
Ġcomp ar
env iron
DE L
pack age
go ogle
ru it
ĠDec isionTreeClassifier
Dist ance
Ġindiv idual
( .*
D o
P rint
g r
g y
k l
l ug
p ub
s id
Ġ ke
Ġ view
or ient
ra graph
Ġp as
Ġp ie
Ġre q
Ġre views
ro ve
mp t
ch a
Ġ2 3
') ]
Ġcon s
ĠC SV
Ġch art
ir th
ĠL anguage
pro b
ĠH e
Res ponse
sv m
ÂłÂł ÂłÂł
Ġcombin ation
Ġter m
Ġnormal ize
Ġct x
Ġdes ired
custom ers
A SE
T otal
g pu
l ong
Ġf ree
le g
Ġre gex
Ġ# #
Ġth ird
ic on
od b
Ġ% (
Ġcomp onent
Ġobject ive
Ġdist inct
dif ference
Ġspa ce
================================ ================================
ĠAN D
Ġcustom ers
Or der
Ġeng ine
I M
R o
c la
m ul
r on
Ġ ge
Ġ https
de red
Ġc ube
Ġl cs
(' --
Ġdef ines
ub le
ime ter
ser ies
ĠG o
In teger
cle an
gen e
ĠSV C
+ "
S ta
g round
p ad
er ies
Ġc li
Ġf ill
Ġf orecast
Ġre comm
me d
Ġd type
Ġw on
Ġprint ing
ĠN aive
alcul ator
Ġset up
Ġk wargs
Ġhe ap
fo o
Con tent
Ġhead lines
Ġ` `
Ġgre at
Ġpart ic
AB ILITY
gn ore
ful l
Ex ception
Ġallow s
Ġappe ars
ĠTra verse
A d
P y
T able
W e
c nt
s quares
Ġf our
Ġm enu
Ġco s
Ġcon struct
ĠC ar
im er
pa rameters
Ġbe gin
Ġmo dified
requ ired
sit ive
tri angle
ĠW IT
Ġdist ances
ĠURL s
hel per
Ġtrans form
SS H
numer ator
Ġmem ory
ĠStandard Scaler
. ",
5 00
C RE
he lp
Ġi con
Ġre l
Ġre lease
ut ions
Ġb ound
ord s
ine ss
ĠĠĠĠĠĠĠĠĠĠĠĠĠĠĠĠ ĠĠĠĠĠĠĠĠĠĠĠĠĠĠĠĠĠĠĠ
mat izer
ĠO pen
Ġadd ing
St art
Ġsh ape
Ġpage s
predict ed
Ġvalid ation
Ġrepresent ing
Ġmatch ing
Ġph rase
EN D
Ġag ain
tup le
Ġconst rain
ival ent
O per
T emp
s ho
v ader
Ġm n
Ġb ar
ma le
iz z
Ġan gle
ĠF ree
ĠC ON
pa y
Ġmax Length
Ġme tadata
Ġv ar
Ġ> >
Ġmin utes
base d
est im
ep isode
Ġye ars
Mat rix
ĠSta ck
tup les
Ġsuccess ful
Ġkn apsack
Ġjo in
P UT
c lasses
i li
l on
t re
Ġ roman
Ġf ix
me ta
Ġb i
Ġl ater
co mple
Ġcon caten
ial izer
ial og
Ġstore d
Ġoptim al
ĠCon nect
Ġprocess ing
cap acity
assert True
Ġoccur rence
Ġcl usters
factor ial
HO UT
Ġequ ivalent
limit er
block s
Ġhour s
aes ar
= {'
C I
U SER
Y Z
e f
e valuate
p ot
v ate
v ari
v ariable
re view
Ġc enter
Ġthe se
te in
)) ]
(" -
(' %
ĠT HE
po ol
quest ion
ĠB inary
Ġmin imize
comp ute
Ġlog ger
div isible
arg er
Ġlanguage s
Ġconfig uration
Ne ighbors
Ġbot tom
permut ations
ĠSw ap
ERR OR
( ?
) //
) *(
3 6
A ll
O S
P rice
p in
r m
s py
Ġp unctuation
Ġin it
Ġre st
Ġe val
il ities
ol ve
pt ime
qu it
Ġ2 7
Ġco ordinates
Ġ4 5
Ġex pected
ext ract
Ġcol s
Ġcom ment
ST M
Ġro ll
ÂłÂł Âł
Pa ram
Ġpack ages
Ġhash lib
Ġdest ination
Ġsci py
C E
C R
Q U
p ush
Ġp ublic
Ġf ive
Ġs ure
Ġst ep
ĠT rans
Ġal ong
ĠS ub
Ġus age
vi ation
ĠE X
teg ers
ĠW e
cl s
Ġpar sed
ĠK Means
Pro cess
Ġpart s
AL L
ĠComp ile
Ġthread ing
riter ia
CH A
Pool ing
Ġcompreh ension
Ġpartic ular
0 2
: .
F e
P ORT
S M
S name
S Id
T itle
W elcome
c an
g it
g hi
in clude
in dices
it ter
ro t
ge s
Ġm ysql
Ġd ates
ss ian
Ġ" ".
Ġg enerator
(" /
is on
to ol
Ġte ch
mo te
per i
read er
ĠRe move
Ġsh uffle
Ġmessage s
dep end
do cs
hand ler
Ġdistribut ion
record s
cli ck
Ġsepar ate
ĠNum ber
ĠPa rameters
---------------------------------------------------------------- --------
room s
ĠLinked List
orient ed
) \
2 8
6 6
= ["
A verage
C M
H ow
M O
M ake
O L
O UR
Y our
m m
w rapper
re et
it or
al th
th reshold
Ġb l
Ġst atic
di rect
ĠT ABLE
ĠT EXT
Ġan s
') [
ir m
ĠB ayes
Ġcol lect
gre en
Ġman y
Ġvis ual
Ġgroup s
mult ip
App le
Ġrespon d
ĠFound ation
ĠWIT HOUT
, '
4 4
C ur
` ,
i mp
i ou
p c
t ab
in stall
de tails
Ġp ix
li ers
Ġto day
Ġd ot
lo y
to col
Ġdi ag
fe rences
Ġmat rices
oc ab
Ġfa hrenheit
sub mit
Ġro ute
Ġextract s
Ġpredict ed
ĠSt art
He ad
Ġquest ions
Ġincre asing
abc def
ĠBo ok
Ġreceiv ed
del ta
Â° Â°
A nd
A ctiv
B U
I G
\ '
] ;
] }
f ect
i ris
p ivot
u cli
w n
Ð ½
Ġa st
at istics
ge d
Ġe tc
id ity
ĠĠĠĠĠĠĠĠĠĠĠĠĠĠĠĠ ĠĠĠĠĠĠĠĠĠ
ase s
po licy
ex ec
enc rypted
Ġuse ful
Ġsc reen
fa il
dir s
Pro duct
yn omial
rap pe
Ġimage s
factor s
Sub string
Ġchange s
Ġpub lished
ae iou
Ġsmtp lib
A M
B lob
I ME
P alindrome
T wo
U RE
\ \
d p
m t
p aper
s ender
s udo
} '.
~ -
re v
re gex
Ġa ble
Ġ' ')
Ġth reshold
Ġcon secutive
Ġma ze
pa re
Ġbe ing
ĠM ax
Ġro spy
Ġz ero
Value s
Ġimp lied
DI R
Ġep isode
" ][
3 7
6 5
: '
A rea
D A
E l
I F
M odule
[ ^
b n
b r
f un
h a
h ot
m ith
s a
re t
Ġt urtle
Ġp ut
Ġin stru
um idity
al k
Ġd own
Ġar ch
ma sk
res sed
et ic
ith ub
ĠF irst
Ġ3 5
Ġde sign
], [
Ġ< <
Ġ5 00
ac hed
requ ire
Ġ{} ,
log ger
ask et
atter ns
ome try
Ġpy ramid
emp loyee
image s
Ġpla in
Ġcalcul ating
Ġpe ople
contain er
itespa ce
Ġshe ll
O ptim
a led
z A
de an
ra ce
Ġc alc
Ġn n
Ġ" ")
list en
Ġl arger
if ies
is upper
qu antity
co unter
ĠS er
Ġ3 4
dict s
title s
Ġsh ift
ET E
vent ory
ĠSe arch
OR D
Ġpass words
HO ST
pair s
off set
Ġbu ilt
Ġauth entic
Ġattr s
CRE ATE
ucli dean
~- ~-
C ase
M ap
M ult
a ign
a ura
b us
e qu
f requencies
o v
} .
Ñ ģ
en ded
Ġin tent
Ġin dic
al led
ĠP er
iv ely
if orm
Ġch o
ren cy
Ġh ref
Ġh ouse
str ptime
per cent
ĠL abel
Ġsub array
De p
[: -
cond itions
Ġpredict ing
Ġli s
PO SE
Ġinsert ion
Ġwin ner
Com mon
sim ilarity
ĠMo ve
P U
T H
[ (
b b
c ut
i um
j kl
n orm
r l
} "
st atic
on ly
Ġc m
Ġc red
la b
)) .
val s
(' .
is digit
Ġse q
pe c
Ġj umps
Ġv irtual
Re pository
class ify
Ġ4 00
Ġon line
and id
ifi ers
out come
fo ot
Con v
ick le
ĠX ML
conn ector
Ġother wise
Ġcommand s
Me an
Ġmark s
LO CK
Ġreg ular
tra ck
Ġcomple te
Comp ose
Ġalphabet ical
123 456
au ssian
ĠSto re
! ",
) ')
C ESS
R U
T rain
a ctions
b lob
c ra
d uplicate
j e
s ure
x path
Ġ vi
Ġ video
on al
Ġc riteria
Ġin v
Ġe valu
ame l
Ġan alyze
Ġme asure
ĠM ongo
requ ires
main loop
Ġfa ster
pla ces
my list
ĠIn sert
Ġurl s
sp rite
ĠY ork
ca use
Ġcombin ed
Ġstudent s
Ġgo al
Ġsim ulate
Ġdeter min
dire ctory
DAT A
Ġke ep
' m
> </
E M
L U
Z E
g lobal
p g
s sed
s cissors
t cha
} :
} _
Ġ Write
Ġt re
Ġp adding
le x
Ġ' _
Ġb lank
Ġst eps
ch o
## #
ol ute
et ter
Ġch oices
Ġde let
int s
dd dd
Ġor g
ĠM at
train ing
time stamp
cur ity
Ġcom bine
ph an
max imum
Ġbo olean
Ġtest s
Ġcomp any
Ġtime stamp
gre ater
Con fig
log y
20 20
page s
AR Y
Ġvector s
wh ite
ca le
license s
Ġcraw ler
8 7
b lank
f c
g i
i ces
l xml
n own
o tes
v ars
re pe
Ġt ab
st eps
ur lop
Ġ' +
Ġd en
ĠP ART
Ġw ins
ma inder
Ġco re
ĠS T
ĠS ci
ab ilities
Ġh alf
po wer
Ġmo ves
Ġne sted
Ġper forms
20 21
Ġspec ify
Ġrepresent ation
sw ers
Ġcap acity
reverse d
Ġcomput es
atic ally
ĠâĢ ĺ
vide os
card s
Ġhist ogram
ĠTO DO
DEL ETE
Param s
urlop en
( ',
B e
F rom
N ESS
V E
W AR
W eb
b ute
c up
e ad
f ar
o ptimize
u uid
er ci
Ġc el
Ġf alse
le ted
ro ck
ĠP UR
ss ign
Ġal pha
ĠC ol
arr y
ta il
com ment
ĠE ng
Ġ7 0
ER CHA
ĠOutput s
Ġsc hed
Ġvari ous
NT ABILITY
IT NESS
ĠPro cess
sy mb
vol t
student s
Ġnumer ical
Ġcapital ize
su ccess
abcdef ghi
ĠPUR POSE
ERCHA NTABILITY
= ",
C all
L M
Q R
T ag
[ ]
f ont
g mail
n etwork
o ci
st ats
he s
Ġf lat
Ġre ward
mp ty
Ġd t
ĠP lot
ch annel
Ġl ate
Ġl arge
us ion
is o
co urse
ĠF ITNESS
Ġcon sole
append Child
mo ves
set tings
Ġwh ose
Ġta x
add r
ph er
Ġhe x
De fine
Ġne ighbor
col lection
Ġ} )
cre asing
Ġent ries
Ġinter face
Res ource
ĠĠĠĠĠĠĠĠĠĠĠĠĠĠĠĠĠĠĠĠĠĠĠĠ ĠĠĠĠ
IC UL
Ġinclude s
Ġremo ved
FI LE
LOG GER
ĠPART ICUL
abcdefghi jkl
ĠPARTICUL AR
H I
P RO
X YZ
Y OUR
c er
c art
f er
u v
w riter
ra nk
ce d
un its
te am
-- -
an file
an alyzer
Ġ[ ['
ma ster
Ġse ction
Ġse ver
unt ime
ĠS end
cri min
ĠD is
pre v
ib ility
ĠM in
ĠM ERCHANTABILITY
ok u
my List
Ġsc al
token izer
En try
Ġ// =
pack ages
qr st
reg ion
Ġsample s
Ġob tain
Ġback end
Ġad ded
eng ine
mn op
wx yz
Neighbors Classifier
G roup
P A
T O
` .
c ion
e qual
j or
j ust
l u
p an
t tp
u ded
w ays
Ġa b
Ġf ig
Ġm apping
Ġe st
lo ur
an swer
ma z
ĠT w
ĠF ile
Ġj ust
ĠA ES
Re ader
sh tein
Ġap ply
gre es
ea m
Ġtra ce
yn am
Ġcont rol
zer o
Bo ok
Ġautom atically
vm fs
document s
ĠText Blob
Ġsymb ols
capital ize
Ġrecomm end
uv wxyz
qrst uvwxyz
) "
T k
b ubble
c ing
g on
k s
v in
in st
Ġre m
Ġre cogn
Ġs ite
th an
li er
li es
Ġe le
un iform
an imal
iv idual
() ;
(' {
ter m
ĠS mith
ab b
ĠĠĠĠĠĠĠĠĠĠĠĠĠĠĠĠ ĠĠĠĠĠĠ
ĠG aussian
Ġsub set
Ġadd s
ud oku
sc atter
response s
lat ive
ĠK NeighborsClassifier
Pro gramming
che my
Ġformat ted
Ġupdate d
Ġdire ction
frame work
tf idf
Ġimp rove
UL T
second s
Al chemy
Return s
Ġsuccessful ly
123456 78
Ġlate st
abcdefghijkl mnop
" \
= ?
D ropout
N et
R S
S h
c ss
d uration
e ff
f ill
h y
m k
n b
n ltk
s q
Ñ ĥ
in tegers
ĠĠĠĠĠĠĠĠ ĠĠĠĠĠĠĊ
res p
co pe
et ri
ter n
ĠD i
ĠG UI
Con t
Ġsh util
PI O
port s
Ġtoken izer
'} ).
inter face
Ġcor pus
Ġpost fix
('/ ')
Ġinst ead
Element s
Id ent
Ġunder stand
Ġalphabet ically
AN G
ĠSQL Alchemy
ĠPo int
Ġgener ating
abcdefghijklmnop qrstuvwxyz
, ))
= _
A ut
A uth
D iv
M achine
a ded
b ind
c ircle
k er
r ont
r atio
t l
x y
Ð »
in terest
se p
Ġp ip
al t
Ġs ales
ue ue
Ġb it
ĠT ime
app lication
ĠC O
ĠI F
ĠI P
Ġsum s
pro file
init ion
Ġcol ors
Ġsub sequence
Ġ6 4
De c
ĠW ord
Ġrun s
dif ic
host s
Ġprovi des
spe cial
back s
Ġmark down
Ġlow est
Ġside s
ĠData Frame
stop words
Ġabs olute
ĠMy SQL
distri but
estim ators
Dep th
Ġsever al
/ (
0 6
> .
D raw
F A
I ES
R ES
U V
c alc
g ithub
n ique
n ull
w t
} }
Ñ Ģ
Ġ layers
in p
st ream
Ġp uzzle
me di
un sorted
Ġb us
di gest
Ġis Prime
ot a
qu ick
to urs
ĠS h
Ġde leted
pa nd
cript ion
Ġwh at
pon ent
sum mary
ĠE T
Ġsc ale
Ġsc aler
sc aled
igh bo
curs ive
lat in
lat form
inter section
config ure
ĉĉĉĉ ĉĉ
dataset s
lish er
Pa ssword
Ne gative
proper ties
mark s
ran ch
Ġstd out
sup port
Le vel
Ġdepend encies
occur rences
ABC DEF
G B
H i
L S
N O
P S
V IC
V ariable
d k
e v
p ipeline
w rit
or ry
en o
ĠĠĠĠĠĠĠ Ċ
Ġin vert
Ġre distri
Ġra nk
Ġco ins
app ed
ir cum
pl at
ĠL CS
time s
mon go
Ġby tes
ĠU S
Ġfa ct
fa mily
Ġtable s
ref ix
ast ype
CT ION
Ġpart ition
Ġrepresent s
ĠĠĠĠĠĠĠĠĠĠĠĠĠĠĠĠĠĠĠĠĠĠĠĠ ĠĠĠĠĠĠ
AC K
umer ic
Ġremo te
mult iply
cont rol
lap sed
aut o
Ġpie ce
phan umeric
Ġredistri bute
ircum ference
3 5
I Repository
L IC
S to
f older
h older
h idden
i ma
p df
t ion
t icket
u sed
} ]
Ġ ve
Ġ Âł
re mote
er a
Ġp k
Ġp at
Ġp urchase
Ġc entro
Ġc nt
Ġs id
Ġs ources
Ġm ask
Ġ" *
Ġst yle
an ager
Ġl on
di ag
ter ms
ci pher
class ification
Ġcheck ing
ne utral
db us
Ġapp lic
Ġtemp late
am ma
Se ssion
ential s
ĠĠĠĠĠĠĠĠĠĠĠĠĠĠĠĠĠĠĠĠĠĠĠĠ ĠĠĠĠĠ
gen re
Ġcal endar
Ġspa ces
ĠComp are
tra ce
roll er
Ġexec ution
Request Handler
ĠApp end
merge d
Ġind ent
Ġcomplex ity
ĠWARRANT Y
Ġcos ine
Ġcel ls
J ane
L ib
N OP
O dd
b ird
d c
f lag
l ation
p ix
t ick
re gressor
he ma
Ġc ache
Ġre d
Ġre ference
Ġre lev
def ined
ĠP O
Ġw ait
Ġst ri
ve x
Ġv owel
ser v
Re ad
Ġbe cause
Ġcom ma
In stance
rel ation
unctu ations
Ġass oci
Ġpe ek
Word s
Val id
Ġvol ume
Sta ck
Ġtech nique
erci se
ABCDEF G
2 6
J K
e q
f z
g z
Ġ ut
st or
Ġf n
rin cip
me dia
li o
Ġreturn ed
Ġw ar
ad r
if est
is alpha
ind ividual
im ate
key word
art icles
Ġwh o
ho urs
Ġcom ments
Ġadd r
Ġ6 5
min utes
fo lio
char ge
let s
String s
Ġimplement ation
close st
cle ar
spe ech
Ġevent s
Ġlong itude
part s
Ġexec ut
Ġcard s
dec imal
Pre dict
Ġrepe at
Ġsymb ol
bl ue
Ġho pe
Ġcoefficient s
Ġstor ing
Ġsmall er
odb ye
) '
) ',
2 7
9 8
A lice
D is
F LOGGER
T ask
W XYZ
b ra
d m
d om
f uture
g res
m se
s he
u la
Ð ²
Ġp in
Ġi gnore
Ġin valid
Ġm ig
Ġd s
om an
Ġpro mpt
us ive
up df
ĠF in
Ġch annel
Ġde limiter
Ġpa y
Ġpa ragraph
Ġme ta
Ġme tric
pro fit
Ġwe ek
count ry
Ġk ernel
Ġsub list
Ġfa mily
ST UV
Ġresponse s
AT ION
Ġdo uble
Se quence
Ar gument
amp aign
dire ction
Ġcraw l
Ġact ual
orig inal
LA Y
QR STUV
HI JK
NOP QRSTUV
ABCDEFG HIJK
NOPQRSTUV WXYZ
ABCDEFGHIJK LM
/ ',
B ob
C vmfs
G ame
I ter
L P
L em
M S
V er
Y es
w b
} \
Ġ ë
Ġc at
ct ure
ĠP layer
us age
ĠT h
ĠT hen
ĠF etch
Ġma ster
Ġh old
]) **
ĠD es
ac count
ex ception
ex periment
Ġpre d
Ġla ng
jo hn
Ġne ighbors
Ġout come
St atus
Ġposit ions
run ning
Ġscra ping
To ken
Ġhand ler
mi ssing
Ġreg ister
ie ve
Ġfo ot
Col or
Ġthread s
Ġpad y
ran ty
Ġaccept s
**** ****
Qu ery
Ġbegin ning
Ġrel ated
crimin ant
" +
. '''
8 4
9 5
C ar
E ven
G e
L L
O ption
T ango
a w
f ive
g ment
r b
u ous
z one
in ce
in cl
se par
Ġd uration
ce ptions
Ġw ell
ap on
Ġth ose
el per
ĠT emp
co ins
Ġres ource
Ġ{ :.
Ġh ome
all ing
ac c
Ġex ception
pro ces
ho ur
ho ok
ho ose
ĠO bject
Ġtime out
ĠU sage
sub set
Ġhead line
Co unter
ĠSe lect
Pro duce
Ġent ered
Ġ12 3
uff ix
ĠĠĠĠĠĠĠĠĠĠĠĠĠĠĠĠĠĠĠĠĠĠĠĠ ĠĠ
Po sitive
Ġoption al
Ġcapital ized
Add ress
gue ss
INT ER
wiki pedia
ĠMongo DB
plat form
Ġwar ranty
adr atic
ABCDEFGHIJKLM NOPQRSTUVWXYZ
) ")
F O
M a
W S
b i
b irth
d one
h old
p at
r d
r g
s r
s ers
s Dict
t v
v ider
Ġ views
st ors
de ps
he mat
Ġp ig
le ar
Ġre mainder
Ġs ge
Ġ" #
res ource
Ġse cret
ĠS um
ĠC reating
ĠA ll
int ent
ser ve
ĠD E
Ġpo ol
pro gramming
ĠM A
Ġlo ve
par sed
col ors
fa st
Ġtemp eratures
Ġdis k
100 00
sp ring
99 99
ĠTrain ing
Ġreplace ment
Ġremo ving
33 33
Ġincre ment
Trans form
xxxx xxxx
pip file
SI ZE
Ġproces sed
Ġsav ed
Ġpas sed
ynam ic
Ġassoci ated
% (
3 1
8 6
= {}
A ssert
B anana
E CT
G enerator
O n
O ri
W h
c fg
f ib
g cd
o om
s lot
s imple
t w
ì Ŀ
Ġ ],
in x
Ġf lags
Ġre direct
Ġn ull
ro d
Ġm is
Ġb g
Ġb ag
om al
() ):
(" {}
ver ter
et ings
Ġma il
") ;
ĠS tr
Ġ3 1
Ġ3 6
Ġresult ing
ĠI mage
ĠI tem
ĠN ot
Ġme mber
Re g
ex c
able d
ĠO S
ĠO n
son ants
Ġr ules
enc rypt
Ġadd resses
da m
"] :
ens ure
Ġcan not
ĠĠĠĠĠĠĠĠĠĠĠĠĠĠĠĠĠĠĠĠĠĠĠĠĠĠĠĠĠĠĠĠ ĠĠĠĠĠĠĠĠ
trans late
Ġread er
dian s
map s
inal g
Ġgen re
ĠImport Error
ends with
Ġpri mary
Ġag ent
Ġwrit ing
PT ION
permut ation
clo ud
variable s
# $
: ]:
> ')
C ap
M i
P age
T a
T ER
W N
f ruit
g ent
h one
l ates
l inalg
s ync
y y
Ġ= ",
Ġ' #
Ġg tk
il ar
(" *
Ġse ar
Ġse cs
Ġcon structor
Ġde cor
ist ing
ist ration
cri be
Ġclass ified
ĠL I
ĠL ib
ĠL ast
pre ss
10 1
Ġsk ip
ĠW eb
Ġqu eries
Ġfol der
Ġper fect
Ġ_ ("
Ġser ial
Ġsol utions
Ġgra d
with out
gn itude
Ġencry ption
gen es
top ic
Ġter min
Ġchild ren
Ġsome thing
Sub ject
Ġpad x
Com mand
hist ory
ĠLe arning
Ġrect angle
SM TP
aura nt
rincip al
+ ',
- ]+
: \
> =
E mail
I s
M anager
P refix
g iven
k nn
w here
y gon
Ġ vert
Ġa pt
Ġp ow
Ġc andid
le et
al i
Ġs udo
li ve
ge ther
Ġd ialog
ri de
el low
ter min
as cal
Ġco uld
'] ))
Ġal tern
ect angle
ĠA t
Ġme mo
ta ch
py game
ser vices
Ġex clude
Ġta ken
ĠE mail
lib rary
ack et
ĠH ttp
Ġun icode
ay er
comp onent
ĠCon fig
pp ed
Ġpart y
ĠAr ray
ĠAr mstrong
web site
Ġnumer ic
Ġcluster ing
Ġ"_ "
js comp
Ġrot ate
Ġconstrain ts
depend ent
mk dir
ighbo ur
ĠFin ally
1 50
3 00
7 0
7 7
8 5
L oc
O b
S u
T ra
U pdate
W ORD
Y Y
s uffix
y ms
Ġ čĊ
Ġ layout
re xi
Ġt icket
or n
Ġi ssue
li p
Ġ' {}
Ġg uid
Ġ[ {'
ch oices
ed u
ation al
Ġcon sumer
Ġas k
ĠS ave
ĠS imple
Ġ3 3
key words
]) .
ĠA ge
ex pected
pro p
Ġdi ce
Ġ10 1
Ġcom mit
sh ift
gorith ms
De g
ĠRe place
ne g
"] ))
fo x
Ġ9 7
ĠIn ter
cond ition
Ġext ra
ĠĠĠĠĠĠĠĠĠĠĠĠĠĠĠĠĠĠĠĠĠĠĠĠĠĠĠĠĠĠĠĠ ĠĠĠĠĠĠĠĠĠĠĠ
ĠJ ohn
Ġpredict s
ĠDe fault
Class ify
valid ation
emp loyees
spe ct
Ġinst alled
AB ASE
Ġ(" %
Ġgen etic
Comp uter
Ġremo ves
Fa iled
Ġdoes n
Ġdel ta
rating s
Ġsign al
clo sure
Ġunit test
Ġhel per
Ġcompar ison
Ġcli ck
ĠPer form
ĠTw itter
: ')
B O
B u
B ar
B LOCK
C V
E mpty
F ine
M B
M enu
R un
S core
[ \
_ )
a ra
b lack
e ar
j ac
l list
p x
s ib
t ls
u ro
Ġ --------
er iv
at ype
Ġ= >
se ason
de tect
ra ise
Ġf ur
ro c
Ġpro duce
ad o
il er
(" ,
ĠT ri
co s
app ly
Ġch ain
Ġde viation
Ġpa int
po inter
ĠN o
ĠN ew
ĠN etwork
Ġsum mar
Re q
Ġ4 2
mple x
we ek
ign Key
ph inx
sh a
learn ing
ĠRe verse
sub array
sub strings
sc aler
Ġspe cies
En coder
ak a
ĠPrint ing
ref s
Ġsol ving
Ġemp loyees
div is
Se ction
Ch ange
Ġpass wd
Ġinter pre
no te
Ġmark er
Ġcomput ing
Ġiter ation
Ġgue ssed
Ġlong er
Ġchange d
Ġincl uded
------ -
orig in
IST S
UM ER
Ġproces ses
Ġsyn tax
ĠAl gorithm
CI I
ĠEX ISTS
Ġcho ose
VIC E
. \
E mbedding
O G
V ol
b log
f l
f latten
h ighest
i ate
s ales
t ure
v ocab
Ð ¼
Ġ ~
re cursive
er nal
or ch
se ed
Ġc ities
Ġs qrt
ur ing
Ġ' :
Ġe v
Ġ" {
Ġfor ward
an alysis
Ġl r
ile s
ĠF e
to array
ĠC lose
00 1
ĠA pi
mo dified
ĠG IRepository
######## ####
Ġtext s
Ġmat hemat
Ġbo ol
length s
Ġne arest
Ġspe ech
Ġsearch ing
ĠV ariable
Ġvari ant
alind rom
Pro gram
Ġpy mongo
Ġcall back
Ġdefault dict
Ġtop ic
################################ ################
atch er
Ġreg ion
Ġblock s
HT ML
Ġproper ty
\. \
Ġlat itude
iki pedia
Ġsupport ed
XX XX
Ġmut ation
HTTP RequestHandler
leg end
Ġcomponent s
sho p
CR ET
"][ "
etri e
Ġrelev ant
1 20
I V
L STM
R P
S P
T op
] {
_ %
e val
f d
h am
s n
s ome
t ar
u ide
w alk
{ "
ä ¸
Ġ license
in teger
Ġt en
st ract
en coding
Ġp latform
Ġc re
Ġre lative
Ġs ig
me tric
Ġto do
ĠP op
ĠP rice
ss b
la ng
Ġg it
Ġ[ ('
Ġ( %
il ter
is hed
Ġma king
to day
Ġde grees
ist ed
ĠD ropout
Ġex periment
Ġfind Max
ĠM achine
Ġsub mit
fe at
10 24
De vice
Ġqu ality
Ġout liers
Ġen amel
comp any
message s
Ġgre eting
phab ets
ava i
Ex ample
0000 0000
Max Pooling
dist ances
Ġad min
Ġneed s
He ight
Fa ctor
Ġrecurs ion
CO L
Un it
sm tp
Th read
Ġact ive
ĠToken ize
Ġaddition al
Ġali gn
Activ ity
Ġden ominator
INTER F
#$ %
alindrom ic
< !
? ",
C lose
D S
D uplicates
F r
F latten
L D
R ow
S how
S ystem
d on
d ating
n c
v di
Ġs a
ur ses
li ke
Ġto o
ce l
lo or
un icode
Ġst ar
Ġst ream
Ġpro file
ol ution
res er
et c
ĠF latten
Ġal gorithms
ĠC l
Ġde vices
ĠA c
quest ions
==== =
Ġwh itespace
Ġget attr
ctor ies
ore ignKey
date s
ph rase
Ġend points
format ted
Ġfa ce
Ġfa iled
ĠH ello
Con text
[: ]
av ig
Ġurl parse
Ġvari ance
error s
gra des
Ġlog ic
Ġgra des
pack et
mid dle
ME NT
Ġsquare d
Ne eded
opt s
Trans late
Ġvol t
ĠToken izer
Ġhel lo
Ġconcaten ate
Ġsched ule
dific ations
writ ten
Ġcentro ids
Predict ed
# ------------------------------------------------------------------------
= ',
B ot
C ategor
E NT
E GER
H ost
O ne
O pen
O UT
S p
S ign
S imple
S ION
U p
V ersion
b etween
f rappe
g ree
p itch
v els
re set
st e
or p
or se
Ġi ris
Ġin side
Ġre po
Ġre fs
mp s
Ġe as
Ġ" :
Ġst atistics
an n
ch or
(' {}
is Message
Ġan ce
Ġdef inition
Ġcon verted
ĠS ho
Ġte am
ĠĠĠĠĠĠĠĠĠĠĠĠĠĠĠĠ ĠĠĠĠĠĠĠĠĠĠĠĠĠĠĠĠĠĠĠĠĠĠĠ
pa che
ĠA CTION
Re cord
Re gressor
Ġle m
Ġle ap
ip s
ĠM erge
ĠO r
Ġ: ",
mon g
Ġcomp ile
De fault
ĠRe quest
Ġsho pping
char set
Ġcontain er
Ġstart s
am era
code s
ĠV ersion
Ġro om
ast er
arg max
wh at
valid ate
EN SE
sol ve
ĠImport ing
Ġcipher text
Ac count
Ġnormal ized
Ġincre ase
anagram s
ump ed
abs path
hex digest
Ġhy per
Ġanimal s
oper ator
ĠWARRANT IES
Ġdim ensions
ĠInitial izing
cla de
Mult ip
Ġdelet ing
ĠMat rix
abb ix
12345678 9
omal ies
isMessage Needed
( \
2 9
3 4
4 00
= \"
G rid
L ink
U ID
X ML
[ @
] -
] ',
c red
k ernel
re m
he my
ra ses
Ġp ur
Ġc b
Ġf g
Ġin verted
ar sh
Ġs uggest
Ġw idget
un ted
Ġb ro
te l
an swers
Ġg l
ed ge
ic a
Ġas cii
ĠC ustomer
Ġh idden
pl us
mat ize
alc hemy
ry ption
ĠB utton
ĠB ubble
Ġcount ry
Ġpre process
init ialize
ĠW ait
mb ers
Ġ7 5
Ġpd f
ud get
Ġ/ =
ĠIn c
comp are
Ġhas attr
Pro per
âĢ ĺ
rel ated
Ġquick Sort
method s
Ġver ify
Po int
ru its
Result s
Ġorig in
Bo x
change d
sql ite
LI B
Ġdivis ors
mod ules
DAT ABASE
aa aa
Ġmn ist
Ġauthentic ation
WAR E
ĠEng lish
Net Lem
she et
NetLem matizer
' ;
- >
? \
C ost
C CESS
G CD
I mp
L ongest
L icense
L inear
N S
O range
P tr
T IME
U rl
Y PE
a ir
p urchase
u dio
x s
Ġ ensure
Ġt r
Ġa ir
Ġp ul
Ġc lear
me t
ate way
ate gy
ĠP DF
list dir
Ġb ed
Ġl cm
Ġ( ?,
if f
ĠT ype
ĠT ake
is lower
is instance
co ords
Ġan alyzer
ht ag
Ġres er
ener gy
ĠS U
ĠC aesar
con tours
Ġmax len
per imeter
==== ==
dd it
Ġtext blob
Ġr atio
Ġweb driver
Ġby te
ĠRe g
Ġqu adratic
Ġfa il
Ġper i
fa ces
Ġroot s
ag ent
output s
Ġmultip les
RO UP
Ar gs
gn u
org an
Ġpalindrome s
Ġcase s
Max imum
Ġdesc ent
vers al
ĠAS CII
Ġrepe ated
cip ient
vis ited
Lo ad
unit test
Ġconf usion
For mat
Java Script
ĠGo ogle
pay load
peri ence
equ ation
Ġorg an
ĠGaussian NB
=_ ("
ĠPO ST
jac ent
aka Req
- =
B inary
F S
F irst
F OR
F oreignKey
J SON
M ark
S L
a range
c rypt
d os
f our
f inal
i ssue
p ed
r f
r strip
s lice
u ch
y a
{ {
in i
in ing
in ux
Ġc ent
Ġc aesar
Ġin fix
ar ing
al gorithm
Ġs s
Ġs vm
ct im
Ġd eriv
Ġe ps
lo ud
Ġst em
ite cture
Ġis Palindrome
ĠT EST
co ef
Ġ2 9
Ġse c
for med
Ġres p
app s
ĠS how
ĠĠĠĠĠĠĠĠĠĠĠĠĠĠĠĠ ĠĠĠĠĊ
Ġde ep
Ġwith draw
ĠA d
Ġle vels
ĠG ame
ĠM ark
cur rency
ang man
ĠRe gression
ĠR oman
ok ie
Ġper imeter
Con nection
fa ctory
log ging
Ġconvert ing
av es
Ġextract ed
SE CRET
LE D
Ar rows
Ġrequ ires
Ġdec rypt
Ġph i
99 9
cap s
Ġgo od
tra ction
ral le
=[ ]
UR I
ĠÐ º
MA X
dest ination
ĠINT EGER
Ġcontact s
Ġsci kit
ĠRandomForest Regressor
ĠMe thod
Ġflatten ed
Window s
fin ing
Argument Parser
Ġsear ches
" ;
& *
' +
0 4
? ',
A dam
D ownload
I R
M on
N ING
N IST
O K
Q t
S C
S O
T EST
U NT
V owels
_ {
c ube
d t
g h
h icle
l n
m ysql
p adding
q a
s in
s yn
t t
t z
u ally
v irtual
Ġt orch
st ates
er os
at in
de b
he alth
Ġin p
um my
al len
ut akaReq
Ġto gether
def ine
ĠP RO
Ġe lapsed
Ġst derr
ch dir
(' <
ver bose
qu ote
up on
co pg
') (
Ġres pect
Ġco in
ic i
pe ople
ĠC ircle
ub y
con secutive
len ium
ĠA uthor
url parse
Ġsum m
class method
Ġget ting
ex port
alcul ating
ĠG CD
Ġpre pare
Ġr ule
ĠE uclidean
ph p
ph ant
ĠU sing
gre eting
Ġsho p
Des cription
Ġat temp
fa ct
ĠIn stall
Ġreverse s
return s
Ġmy list
ĠEx ecute
spa ces
Ġman ip
cap tcha
An agram
Ġver tex
vol ution
Comp ute
Ġjob s
Ġaut o
seq s
Ġfrequent ly
UL L
.... ....
Ġwork ing
Ġbu y
Ġautom ated
ba ud
cu da
Ġrequire ments
mac ro
Ġcross over
(.* )
(.* ?)
dered Dict
Ġbound s
volt db
ĠDis play
Ġscal ar
Ob j
Ġmathemat ical
" },
- ',
@ #$%
F low
F ound
G L
G raph
P erson
V ec
_ ="
c as
f lags
g ui
m c
n y
o ols
p unct
p atterns
u int
y m
Ġ ),
re pr
re ceiv
Ġt ick
Ġp se
Ġp sy
Ġf l
Ġin her
Ġthe ta
Ġn b
Ġn et
ro y
nd ing
Ġm ul
Ġw rapper
Ġ" </
te p
() ).
il ing
ot o
ed it
ĠT ensor
Ġse p
Ġse curity
Ġco lour
Ġal phabets
") ]
ĠS ample
ĠS ystem
po ssible
]) ;
]) ]
ĠI ter
Ġv c
=' ')
op s
Ġpre processing
Ġsub sets
Ġ: -
read lines
ĠR E
ĠR ectangle
ĠR etrie
sc ra
og raph
ix ed
Ġfe at
rect angle
Ġmult i
Ġ100 00
ĠSe cond
Ġgre en
ĉĉĉ Ċ
('/ ',
Ġupdate s
ĠPro duct
Ġinst ances
back end
Ġdec rypted
EN V
pi e
Ġbuild s
Po licy
Ġfo o
Ġsw apped
Ġselect ed
Ġrecurs ively
Bo ard
SV C
Ġconnect ed
Ġpol ynomial
activ ity
gue sses
Ind x
Ġlook up
ĠKey Error
Ġed ges
tre es
Ġbi as
Ġdetermin es
Ġtrace back
Auth Handler
Bu cket
Ġperi od
Ġpsy copg
0 123456789
5 4
? '
B N
C P
F izz
I X
J ob
O c
P Y
P ER
P AS
S c
] =
b and
b asic
c ro
f alse
p id
Ñ ĭ
Ġ í
Ġ ĉ
re r
Ġa ctions
Ġa ux
or ical
at tributes
Ġc d
Ġc y
Ġc art
Ġf orest
Ġre set
Ġn orm
Ġs ending
ur i
ent ries
Ġm d
ĠP and
Ġb t
te en
() ),
di ce
es c
__ ,
ma chine
ig i
et er
as ename
ĠF ill
Ġal ways
Ġas yn
Ġimport s
ub s
Ġh anoi
Ġde ck
Ġde posit
ci o
Ġex act
ĠO ptim
array s
In stall
min imum
comp uter
av ing
own er
gra dient
Pro ject
che ma
ĠCon v
ĠCon structor
RE AD
Ġpop ular
late st
und red
Ġart ist
Ġhand ling
create Element
Ġ. /
Ġspa cy
Ġiter ations
)+ "
Ġsim ilar
SER VICE
iter ations
event s
Test s
ĠData base
DB US
Ġallow ed
fore ver
Ġclean ed
Ġappro ach
sm all
Ġ'{ "
bu f
Ġrating s
ĠQu ick
lug in
Ro ot
Â°Â° Â°Â°
Ġinstru ctions
Ġcm updf
repe at
ĠSci kit
roc ery
avai lable
Sign al
allen ge
ĠPand as
! ',
) }
- \
/ ')
B UT
C li
C ore
C LU
E vent
F requency
F inder
G EN
H elper
J ECT
L T
O ut
S entence
^ &*
h ive
k i
v o
v as
Ġ ).
Ġ ?)
st ep
or th
Ġin k
Ġs r
Ġs leep
ur on
Ġd a
Ġb rowser
Ġst ars
di alog
us ing
ĠT ask
Ġan not
et ree
Ġdef ined
to do
pe ar
ĠS pa
ĠS cra
ren gth
art s
ĠA uth
Ġnot ification
ĠL a
ser ial
ser ialize
ĠD B
ĠD ate
Ġle g
ĠM on
ĠM NIST
bo ot
Ġwe re
time out
Ġcom m
Ġk means
sit es
.. /
ug ment
sc hema
head line
place holder
Ġsh uff
ific ial
AR D
ĠSe par
Ġsu ff
Ġsequence s
(). __
bot tom
Ġdocument ation
categor ies
Pa rent
Node s
Ġpri ority
Ġpri vate
Ġsepar ator
ĠNe ural
imag inary
Ġopt s
Ġfix ed
peri od
Ġinstru ction
Ġcred entials
symb ol
ralle l
( %
. </
? "
C or
C elsius
F lask
P arse
R ange
S up
S quare
W ith
h ouse
Ġ ^
in ventory
re ference
Ġt ie
Ġp an
Ġp ickle
Ġf uture
Ġf ront
um an
Ġs lot
ĠĠĠĠĠĠĠĠ ĠĊ
Ġm s
Ġe mbedding
ort i
un ch
un ic
Ġg lob
Ġl xml
Ġpro b
Ġpro fit
__ _
ation B
(' ',
ĠT H
Ġres ources
Ġma de
Ġma kes
Ġma gnitude
'] }
ab lish
art ment
ĠA nd
ĠD ep
Ġpo licy
Ġit self
ĠG rid
com ing
ĠO ption
sum s
Ġon ce
ĠE ach
ĠE vent
Ġper mission
trans lation
Ġdiv ision
ĠK EY
object ive
Ġdb us
back ends
dis co
Ġclose d
stru ction
Ġcorrect ly
DO M
call back
Ġoperator s
Ġsepar ated
AD D
Ġord ers
lin ux
contain s
activ ate
bu cket
Ġfin ished
Ġrot ation
Ġed ge
Ġangle Deg
vari ant
Ġarch ive
~-~- ~-~-
Ġindic ating
cut s
Ident ify
ĠWord NetLemmatizer
Su ccess
Ġsuff ix
0 8
A uthor
B uzz
C ipher
G ROUP
L C
O ver
P L
P R
P op
S cale
S UMER
W idget
b ash
c ert
c ities
c pu
d ns
e ep
g ger
h umidity
p wd
q em
s ources
} </
Ñ ı
Ġ ê
re po
re ward
Ġt x
Ġt ar
st ar
er f
se ct
de lay
Ġp unctuations
Ġp alindromic
Ġc map
Ġc ircumference
Ġi mag
Ġf light
Ġs i
Ġs imp
me mber
Ġ" ":
lo pe
lo aded
Ġb order
Ġb irth
Ġg r
ch art
Ġl pi
Ġpro be
__ ()
ram ble
il la
ot ing
ation A
(' :
ĠT ic
is bn
qu ired
up s
co efficient
iz ers
---- -
Ġse ason
Ġse lenium
as cending
Ġcon cat
Ġcon sonants
Ġword net
Ġal phanumeric
ĠS core
Ġimport ant
Ġh appy
Ġh umidity
ĠN ULL
Ġj et
Ġme t
Ġ% }
mat ches
ou th
ĠG ra
com ments
Ġdi rect
ĠO ther
ure d
Ġon es
are d
mon ds
Ġcheck ed
ne ighbor
sub sequence
head lines
Ġpar ses
IN FO
Ġfil led
Ġdis count
Ġfe ed
ĠĠĠĠĠĠĠĠĠĠĠĠĠĠĠĠĠĠĠĠĠĠĠĠĠĠĠĠĠĠĠĠ ĠĠĠĠ
Ġlog istic
div ide
ĠDe fining
Ġtf idf
Ar r
ipp ing
UT H
Ġ-- -
Ġno un
check er
ormal ize
IS O
IL URE
CO DE
mark er
bound s
weather map
Ġoff spring
occur rence
Ġdecode d
je ction
Ġfig ure
Ġdialog flow
Ġ-------- --
@#$% ^&*
qem u
# *
( **
) ['
. ##
/ >.
0 7
2 000
6 3
8 9
= -
> ")
L IN
L etter
M IN
N etwork
P LAY
R ed
S tem
S pec
T ON
U sage
W PAS
] /
] ==
c lock
d ump
e g
f i
l ator
n th
y es
z ure
in creasing
re ddit
se mb
ra dians
Ġp ick
Ġre places
ur face
me ck
ge ometry
Ġo l
ut or
Ġd ic
Ġd ynamic
ĠP ort
ĠP lease
ĠP ORT
Ġw riter
Ġfor ms
ri end
ch meck
ol l
(" [
ma jor
get Element
is dir
for ward
Ġcon vent
Ġcon anfile
ĠS E
ĠS O
ĠS im
ĠC hat
Ġch unk
Ġh am
Ġ3 00
Ġde lay
one y
]) /
ĠA p
Ġclass ifies
ĠD iv
Re verse
ex clude
ex ercise
ject ory
bo s
Ġr untime
ĠE rror
Ġk v
Ġk now
ang ular
De bug
Ġup dating
.. ...
ator y
Ġne utral
token ized
sc hed
Ġ_ ,
ĠIn dex
Ġser vices
ock er
IN D
IN ST
ĠPrint s
Ġ20 20
Ġextract ing
OR E
Ġcor relation
ĠSt ate
Ġdisplay ing
Ġtra vel
ĠPro ject
pri mary
pri vate
send mail
Ġcomple ted
16 8
NU M
part y
cont roller
bu ilt
Lo op
Date Time
ele phant
Ġpas cal
Ġconstrain t
Oper ation
(? :
Ġrest aurant
Ġdiag onal
And or
ĠLabel Encoder
ced ence
PA SS
Cont rol
Ġbus iness
Ġdecor ator
Ġcandid ate
Ġfur ther
ĠRetrie ve
ĠSepar ate
- .
0 3
? ")
A G
A CT
F E
G N
G HT
I I
I AL
L ab
M ac
M eta
O AuthHandler
P ort
P hone
R M
R GB
S pe
S plit
S chema
U t
b atch
c r
d r
f ree
g t
m x
m all
n one
p ickle
r ong
s ame
s parse
w rap
er ce
or ing
at tribute
en um
de vices
Ġp atterns
Ġc fg
Ġc arry
Ġf rappe
Ġre ach
Ġs ends
li ct
yth ing
ul ary
Ġb py
il ent
num py
(' [
(' ''
Ġan omalies
ĠC alculator
ĠC alculating
from string
Ġx range
ist ant
Ġme dia
text o
mo ved
Ġ5 1
Ġ5 5
Ġtw isted
ex ceptions
Ġex cl
Ġex pr
ĠG en
ĠG ener
we apon
ĠE mbedding
Ġmin i
Ġend ing
ĠR ed
ne arest
Ġne ighbour
sub tract
ĠCo mplex
vector s
vector ized
Ġro utes
Ġz eros
posit ions
ĠK eras
Ġbre ed
inter val
Se q
sp ot
Ġmean ing
ĠSt reet
Ġbinary Search
post gres
Ġcall s
DE X
Ġhand written
Ġdep ending
du ces
lem matizer
pi ral
Ġver y
Ġiter ator
Ġoccur ring
even shtein
Ġmon itor
open weathermap
Ne utral
Text Field
Ġseries Params
Ġinstall ation
Ġport folio
CH EM
fore cast
Ġnumer ator
Ġmonth s
fetch one
ĠBo ard
numer ic
combin ed
Ġfin ally
Inter face
ĠCom mand
pad ded
Temp erature
multip lication
(', ')
Ġrecogn ize
Ġapplic able
Ġwho le
proces sed
ssb Data
INTERF ACE
Ġrespect ive
Stem mer
$ '
4 8
; \
D n
D ER
D IT
D ING
D ATE
E ng
G ra
G ender
I f
P RI
R ate
W in
] *(
b asename
d ts
f ct
f ound
r r
æ ķ
Ġ ri
Ġ ))
Ġ ])
Ġ ..
in v
in formation
re cv
re cogn
Ġt s
Ġa wait
Ġa udio
st at
or a
Ġp layers
Ġc a
Ġc lock
Ġf d
Ġf et
Ġin ner
Ġre cent
Ġre pr
ar p
ro cess
Ġo w
Ġ' ':
ĠP ath
ce ive
la sh
ri ble
ol low
ĠT k
res ize
res ources
co in
co ordinates
name d
ig uous
as cript
Ġres ol
Ġco eff
ic ro
ĠC ase
ĠC hoose
con sole
Ġh og
Ġde gree
pa ragraph
ĠA ssign
Ġ% .
ĠL STM
Ġex ponent
Ġor ient
pro tocol
ĠM L
Ġset ting
init ial
Ġu uid
ĠE dit
Ġmin s
find All
tri es
). __
Ġ9 9
sc ape
Ġreverse String
ven shtein
Ġext ernal
av ascript
Ġdis criminant
ak ing
ĠĠĠĠĠĠĠĠĠĠĠĠĠĠĠĠĠĠĠĠĠĠĠĠĠĠĠĠĠĠĠĠ ĠĠĠĠĠ
Ġdo cs
pred s
Me dian
uff er
bot on
cent ro
Ġno qa
ca de
Ġdetect ed
Ġman ner
Ġman ifest
Id x
assert False
ĠTest ing
Ġhigh er
ĠQ ueue
Ġsim ul
Ġfo od
Ġequ ations
Mo ve
sk ip
sql alchemy
vers ation
Th ree
cu rences
sup er
win ner
Ġmem c
Min imum
lev els
ĠQu ery
Go odbye
ÂłÂłÂłÂł ÂłÂłÂł
Ro ute
ĠTrans form
[^ \
ĠSer vice
Ġcred it
Call backs
maz on
maz ing
ev t
Ġpk t
Ġtechnique s
ĠHttp Response
component s
orp ho
Ġance stors
arsh alling
ĠTensor Flow
Ġink Draw
ugment ed
Ġconvent ion
. )
6 7
= ","
A E
B ack
D ire
M D
P art
S ample
S mall
b ig
b rid
c raw
f ab
g inal
h p
l r
m g
p le
t ot
å ı
è ¯
ì Ħ
ï ¼
Ġ err
Ġ ?,
Ġ vec
in line
re p
re nder
Ġa w
er ing
on do
on don
at ible
at ives
Ġp add
Ġp lugin
Ġc rop
Ġin verse
Ġre ached
Ġs at
Ġto k
ĠP ipeline
Ġw ind
Ġ" |
ri val
Ġb ra
Ġst at
Ġst ation
Ġst ates
an ner
om bre
)) ;
is m
for ce
Ġy et
Ġ{ {
to ur
Ġh ive
Ġfunction ality
ĠN ote
ĠA pache
Ġnot ice
ĠL IS
ac cept
Ġwh ite
Ġ4 8
pre vious
ex pand
Ġta king
ĠB e
ĠB ST
ĠB UT
pro bability
ĠG e
ĠG PIO
ĠE nd
Ġ8 5
Ġhe alth
oc ode
ĠH ost
Ġun its
start tls
Ġen able
loc ations
mit ted
Ġhas hed
play ers
Ġdis able
ĠDe lete
Ġread ing
che f
Ġactiv ity
RE CT
Ġdf s
cor r
Ġcall ing
Ġdefault s
Ġ25 6
tes ian
Element Tree
not ification
An alyze
0000 00
Ġhost s
Ġgo ver
update s
dist inct
Ġback ground
uzz y
Fa ce
rypt o
comm erce
Ġbu cket
ĠSQL ite
Ġ'- ':
âĢĻ ,
Ġautom ate
Ġpub lish
ĠApp le
eta ils
Ġappe ar
err print
desc ending
ĠTree Node
capital ized
ĠCom mon
oper ation
Ġ'* ':
FT WARE
IM arshalling
Ġ>> >
comple te
irm ware
BU G
symb ols
Aut om
Ġinvert Arrows
separ ated
TER N
baud rate
Oc cur
ĠSO FTWARE
rocess ing
IMarshalling Tests
! !
" })
) ",
. +
0 33
9 6
A GE
C B
E mployee
M AT
M ale
N OT
P DF
Q ueue
S H
S ite
T F
T ri
b rowser
c p
c ation
c wd
d st
e mbedding
f name
g ener
h appy
k means
s am
s ilent
t x
in valid
Ġt v
er Stemmer
on gs
he ses
Ġc la
Ġf lower
Ġf size
Ġin dependent
ar c
um b
Ġ' "
lf t
un ity
Ġb ins
Ġb lack
Ġb etter
te ction
ver tex
ĠT able
is file
is ual
res ol
up le
ĠF A
'] ),
ĠS H
ĠC lient
Ġde script
py vex
Ġv ocab
ĠL evenshtein
ĠD AT
Re quired
Ġex press
Ġta il
Ġle af
ĠB Y
ĠG tk
Ġstr ategy
ĠO T
sum ption
Ġuser data
ĠE l
Ġsub traction
([ (
read line
Ġ{} \
ang ing
Ġcomp ound
ĠW indow
ĠW hen
ĠW ikipedia
Ġne g
Ġper cent
Ġro ck
12 7
cre ment
ag ing
Co mple
Ġread able
inter cept
IT E
Ġinter val
Ġinter nal
Ġdire ctories
Ġparent s
go al
Ġgen es
ru les
match ing
Ġsw arm
=[ ],
He ader
CO UNT
stock s
Ġag greg
LI ED
({ "
bound ary
ĠRes ult
contact s
pk g
Ġpi pe
MP LIED
thread s
CON SUMER
Ġcons isting
cnt l
dddd dddd
Be gin
animal s
Dec isionTreeClassifier
ĠTh read
divis ors
note book
COL OR
Ġstar ted
#------------------------------------------------------------------------ ------
fab m
# ================================================================
' "
) ],
+ )
1 30
9 7
: ],
C od
C alculator
E G
F lags
H igh
J ack
M em
M any
M ongo
P lot
S ource
S orry
T R
V I
a ctor
c g
c ision
d at
e ach
g ain
l int
m Path
r ations
s un
t imer
v owel
å Ī
Ġ ()
Ġ que
Ġt d
Ġa round
Ġp ot
Ġp aper
Ġf ruit
it ics
al id
Ġs orry
Ġs ince
def er
ss l
ri ck
ri cs
Ġb el
te ms
Ġ1 80
ame s
Ġl in
Ġl sm
Ġth ings
Ġis bn
ed y
(" {
(' .')
as ync
ĠF orest
to list
Ġas ync
ĠS cript
ĠS tep
ĠC ur
con caten
con anfile
Ġpa st
ta c
Ġ5 000
ĠL ayer
ĠD ot
Ġpo inter
Ġex c
ĠB ank
pro g
pro gram
][ -
ext ra
par k
red u
tain er
ĠR O
ĠR o
ĠR ock
Ġline width
Ġout file
---------------- --------
Ġ/ >
my db
sc rap
List ing
ble ms
ye ars
Ġ20 15
ĠĠĠĠĠĠĠĠĠĠĠĠĠĠĠĠĠĠĠĠĠĠĠĠĠĠĠĠĠĠĠĠ ĠĠĠĠĠĠĠĠĠĠĠĠĠĠĠĠĠĠĠĠĠĠĠĠĠĠĠĠĠĠĠĠ
gra mps
work er
cre w
ref resh
Ġopen ing
Ġright s
ĠCon tent
Ġsu it
ĠY ANG
tect ed
AL CHEM
ber ry
spe cies
Ġsn ip
create Text
lem matize
Ġdiffe rences
ĠQ t
ĠAr gument
man age
Pa ir
ĠMult ip
01 7
Ser ializer
make dirs
Ġsp an
Ġsp ell
dest roy
ĠProgram ming
Ġ'- '
RI GHT
SQL ALCHEM
au dio
`` `
Ġgradient s
vis ibility
pk t
short cuts
(_ ("
ĠClass ifier
ĠPy Tango
Ġstor age
Ġperm ute
half Size
Ġheap ify
Fe atures
Ġbl ue
require ments
Ġplain text
Ġtre es
cup ation
ĠDi ctionary
Aut o
Ġaltern ative
ĠTri angle
Vol t
fl ush
Ġpul p
ĠType Error
eter mine
CLU DING
createText Node
SQLALCHEM Y
! "))
. "))
/ .
/ ?
B eautifulSoup
G IMarshallingTests
L inked
O FF
R MA
W idth
a ff
b box
b rown
c f
c ce
j z
j ava
k a
n l
o o
p ig
p uzzle
u up
Ð ¹
Ñ Ī
Ġ utils
Ġt ic
at ial
de limiter
le af
Ġre gressor
ar range
ro le
Ġs v
Ġs lice
ur len
nd s
Ġ" ",
Ġfor ce
ri ve
Ġb p
Ġb ig
Ġb its
Ġb box
Ġg eneral
Ġg ateway
Ġpro tocol
end point
Ġis Empty
Ġis Anagram
gram s
(" <
(" ")
ma ze
ĠT itle
qu ota
Ġco ord
Ġ{ %
") [
ĠS ET
ĠS quare
ab cd
Ġde v
Ġj e
ĠA P
Ġme di
ĠD ist
ĠD ia
Ġ4 4
Ġle venshtein
pro ps
Ġit ree
ĠM ap
ĠO N
Ġmo unt
mon str
sit ion
ĠU t
.. ',
ne ctions
Ġline style
ĠH ow
Ġ9 5
ens ive
Ġat ta
Con tact
Ġstart project
ant iate
Ġos g
tr uth
Ġsh ut
Ġhas htag
fil ters
Ġro bot
cre ase
Ġsy non
NT U
Ġoper and
cal endar
Ch ars
Ġmultip lied
Ġmultip rocessing
ipp ed
dis k
dis count
LO W
ru pt
send s
Ġgue sses
Ġperson al
Ser ies
ĠÐ ²
Ġcopy right
CH AR
Fa ctory
Fa hrenheit
ĠID s
Add r
Ġkn n
mar vin
calculate d
Ġhy pot
IO U
+' /
Ġforecast sDict
vari ance
Cur rent
BU NTU
aeiou AE
ĠMax Pooling
Optim ized
bus iness
outcome s
Ġvi ctim
ĠProcess ing
PRO JECT
medi um
Ġut ility
stor age
Ġmig rate
Ori ginal
ĠFe ature
ste ms
virtual env
ĠDep th
riend ly
DateTime Field
æķ °
centro ids
RMA A
urlen code
aeiouAE IOU
+ ",
. '.
8 00
: "
< =
B ASE
F loat
G ue
L a
L ay
L argest
M I
M M
M ain
M ost
P an
P ol
S U
S o
S ET
T arget
T RI
[ [
] **
` :
i po
k et
n ts
n apsack
s ay
s phinx
v nc
w arn
} ;
Ã ¡
Ð ´
Ñ ĩ
Ġ --------------------------------
er ry
or ation
or iz
de cor
Ġp lease
Ġf ra
Ġin ventory
um m
al y
al ing
al low
Ġs piral
me ters
ut c
Ġto ols
Ġm al
ĠP ip
la ce
Ġ" ").
un ded
ul ly
Ġb ank
Ġst ick
Ġg uide
di sp
ot ion
Ġ== ================================================================
(' //
id ence
ig ns
== "
Ġdef ining
Ġse gment
Ġres pe
to e
'] ):
ab al
Ġh ard
Ġ3 7
art ist
py test
ĠD A
ĠD O
ĠD ownload
Ġpo cket
ou gh
ĠB E
ĠM eta
ĠO ne
read s
Ġcheck sum
Ġup grade
jo bs
gre SQL
Ġout er
Ġfol d
Ġun ion
Ġfollow ed
sub plot
sub process
ea f
Ġac ross
Con f
ari o
Ġext ensions
req cnt
new line
example s
Ġdis co
ctiv ely
ĠĠĠĠĠĠĠĠĠĠĠĠĠĠĠĠĠĠĠĠĠĠĠĠĠĠĠĠĠĠĠĠ Ġ
Ġmy file
Ġmy List
Ġdo ub
ĠSe quence
Pro be
Se cond
ĠCon struct
RE G
Ġpop ulate
DE BUG
Ġ15 0
pack ager
create d
Ġtrans pose
Ġbuild ing
Ġgo es
Ġgo ogle
pri ority
man ager
img tag
ĠPre process
MA IL
DO WN
Ġim m
Ġefficient ly
lin ical
Ġbutton s
Ġsupport s
AP L
Ġdownload s
Ġ"- ",
ĠIN ST
ĠVector ize
Ġ80 80
Ġfin ish
Ġwebpage s
fin ish
VER SION
Ġcompar ator
ĠHe arts
ĠBinary Tree
loy er
ha vi
Ġauthentic ate
PU Array
lab les
('. /
abcdefghijklmnopqrstuvwxyz ABCDEFGHIJKLMNOPQRSTUVWXYZ
distribut ion
LIC ENSE
Ġpat ient
Ġmail box
ado op
RP C
Categor y
Ġpur pose
Ġreser ved
SO CK
LT K
ĠTH IS
ĠOther wise
Ġstick y
Ġrespe ctively
' re
' ")
( ("
- '
: ,
A ULT
A gent
A APL
B T
B ayes
D ig
F our
F ROM
H ist
I gnore
I tems
K EN
Q ue
R el
U SE
V AL
W ait
] \
] ][
a ssign
b asket
c pp
c alculator
d jz
e poch
g ments
g amma
h anoi
i ra
i ency
l lables
m q
n i
n an
n es
p et
p url
r type
r RNA
s ix
s ock
t id
t icle
u ses
v or
ì §
Ġ ĉĉ
en coder
se en
se curity
Ġc ut
Ġre ason
it u
Ġn avig
Ġs cope
Ġs ieve
ct ype
li cies
Ġo wn
Ġm aps
Ġd uring
ĠP ol
ĠP acket
Ġb me
Ġb rand
Ġg n
iv ers
ch allenge
di sc
Ġpro gress
)) ))
(' ')
ma s
co lour
Ġan swers
ve ct
Ġma cro
to dos
ĠS up
ĠS pec
ĠC A
ĠC LI
im ap
Ġh ad
pa rameter
ĠN LTK
Ġj umped
mo re
Ġ5 6
Ġ5 87
url patterns
ĠD RMAA
Ġget s
Ġex pand
Ġor dered
Ġle aves
ĠG lobal
Ġcur rency
Ġbe havi
=' %
add ition
Ġla w
=" /
Ġsub str
read th
Ġcurrent ly
ense s
Ġen co
os en
ay stack
let on
play ing
script s
Ġtarget s
ost on
Ġ20 14
cre en
ĠK IND
Ġread y
Se lect
qual ity
stem mer
lp i
Ch aract
RO OT
Ġlinear Search
ca mp
Ġdep loy
Ġexpression s
ffic iency
Ġconfig parser
sing le
no logy
50 1
Ġstruct ures
Ġcategor ize
pol y
Ġav oid
Ġ'. '
Ġmon ster
]+ "
sign ature
Test Case
Ġad jacent
ĠâĢ ĵ
Ġretrie ves
abc abc
Ġmonth ly
Ġbubble Sort
Search CV
Ġpub lisher
ĠNum bers
Ġdir s
"} '
At tr
short est
Ġdepend ent
unk nown
appy Process
itespa ces
Log ger
DEF AULT
clean ed
We ight
SSH A
Oper ations
MO DE
Ġvisual ization
IG N
IG HT
fail ure
IF ACE
sa fe
Ġhalf Size
hes is
inst ances
Sto ck
ima gen
ĠÂł Ġ
serv ation
ula cion
incl usive
Mi ssing
Ta gs
Ġ'{} '
Ġinterpre ted
ĠCl ubs
Ġcent ers
receiv er
band width
ĠSpa des
ĠAuth entic
inline Callbacks
ĠDia monds
Ġsynon yms
! @#$%^&*
" ^
# --------------------------------
) (
. /
0 9
1 80
5 9
5 000
6 2
: `
A s
A ction
C amera
F IN
F req
G ui
H o
L ondon
M T
M TP
P os
R ock
S entiment
T ac
U nk
b x
d ense
e float
f ft
g b
g ence
j ar
m mal
o sed
p b
t urtle
v id
y on
} ),
³ n
Ã ³n
Ġ -------
Ġa i
se ek
he y
ra b
Ġp res
Ġp rincipal
Ġf ew
Ġre cap
Ġn x
al phanumeric
Ġs ong
Ġs ender
Ġs alt
ct rl
th ird
nd ers
Ġ' </
Ġm se
Ġm db
Ġm ongo
Ġd rop
ĠP RI
la n
la re
la zy
Ġ" [
Ġ" {}
list ing
lo ok
Ġb old
iv ity
Ġpro duces
ap es
ad v
Ġlist ing
rom os
ol or
(" ""
el en
is f
': [
ve lo
Ġse ss
ĠF requency
ĠS GE
ĠS MTP
ĠC ustom
ĠC ipher
ĠC loud
im db
Ġch ose
ir cu
Ġpa rallel
od o
od om
ĠA R
per m
ĠL ink
ĠL IM
url lib
Re v
Ġ4 3
Ġsort List
Ġle arn
ĠM ock
bo ol
lif y
our se
split lines
root s
Ġtime delta
ĠU N
ĠU BUNTU
"] ]
oi se
bin s
Ġapp s
Ġstart app
fig ure
Ġext ension
IN DEX
ĠV alid
Ġ20 1
Ġmy db
Ġloop s
Pro file
RE Q
To e
present ation
AL LED
Ġinter act
Ġinter active
uff man
Ġtop ics
unct ools
Ġ', '
Ġtrans formation
sv c
Ġcap ture
Ġcont iguous
connect ed
no un
AC CESS
Di ctionary
Ġident ifier
top ics
Ġpla ces
Ġtag ged
Max Scaler
Ġreg istration
man y
man ifest
ĠPre processing
IS H
Ġgue st
Ġfilename s
Ġpack et
project s
MA P
Ġsp ent
Ġsp ot
ran ce
Ġwork s
PAT TERN
CD F
Ġsci ssors
LI ST
lin eno
AP PS
Le arn
Ġreceiv es
ĠRes ource
ĠCh ange
Inter rupt
Ind ices
release Dir
plain text
Ġ'* '
Ġref resh
Ġdevelop ment
pub lisher
Py Tango
izz a
Ġvisual ize
Activ ation
fun cs
percent age
static method
ĠCol umn
ĠEng ine
ĠMin MaxScaler
Ġrecommend ations
Ġpay load
Cvmfs Probe
("* ",
ĠLib rary
Ġsummar ize
Sp ider
====== =
ici ous
Ġleg end
Ġimag inary
getElement Text
Ġcoeff s
ĠBank Account
romos ome
ircu it
ĠLIM IT
$ ",
) }')
, .
. {
7 2
: '\
= ""
A F
A UTH
B lock
C l
D if
D ay
D ocument
D etails
G en
I mport
K erf
L et
M ARY
P ri
P attern
P aper
P ACE
R UN
R ank
S w
W ork
X I
b c
c les
c map
e ver
e ars
h ape
j id
j pg
k ely
m ango
o py
p ca
p ins
s low
s ink
y hat
z illa
Ð ·
ç ļ
Ġt tk
Ġa mazing
st ablish
en abled
Ġp tr
Ġc ampaign
Ġf irmware
Ġre ally
Ġre xi
Ġs ix
Ġs af
ct l
li der
Ġm ight
Ġd y
ĠP an
ĠP aper
ĠP ascal
Ġw al
lo gs
un ion
un tered
un nel
ri c
ri st
Ġb ill
Ġb asket
Ġst rength
Ġ1 20
Ġ[ ])
Ġl list
Ġpro c
)) /(
Ġ( {
il ename
ma ket
co x
iz ations
ĠF raction
ĠF orti
Ġco urses
data frame
Ġcon versation
ĠS c
ĠC lean
Ġh aving
Ġde monstr
]) [
], '
Ġmax Element
Ġmax imize
mat mul
Ġv name
Ġex perience
ĠB log
pro blems
ĠG roup
Ġlo ck
=' ',
ext ended
Ġtext o
we et
fe ssion
fe male
De f
tri p
Ġend s
Ġ7 84
sub list
Ġsc n
Ġsc ramble
Ġval s
ven ue
Ġen um
am ing
board Interrupt
AT ED
ET HO
ĠĠĠĠĠĠĠĠĠĠĠĠĠĠĠĠĠĠĠĠĠĠĠĠĠĠĠĠĠĠĠĠ ĠĠĠĠĠĠĠĠĠĠĠĠĠĠĠĠ
ise d
OR S
Ġ", "
Ġgra ss
Ġover all
Ġread ability
inter nal
Ġscra pes
Ġli ght
parse DOM
ĠY our
RE AM
RE XI
tag ged
Ġmain tain
und s
config uration
cent ers
ĠLicense d
Ġart ificial
back ground
Ġconfig ure
Ġstate ments
ins ide
Ġperform ing
Ġstock s
ĠSet up
NA M
iter items
iter tools
Ġcomple tion
argument s
Ġload ing
ĠÐ ¿
Ġad just
auth entic
Ġmode s
Ġshow s
Ġnumer al
change s
19 2
78 4
Un ique
Ġplay ing
af er
/' +
dec ision
Ð¸ Ð½
ĠMe ssage
dic ate
ĠMo vie
mn ist
OP Y
Ġgener ation
++ )
ĠSto ck
Ġassign ed
Ġdim ensional
pub lished
Ġheap q
pay ment
Ġroll ing
TH ON
Ġrem inder
medi ate
ĠUS A
Sto re
Ġapplic ations
Ġstri p
ĠMA X
Ġtermin al
-]+ @
Ġvert ices
Loc ation
Ġsig moid
Mon th
Ġtick ets
Ġpse ud
ograph y
ĠGener ating
Cod ing
Auto Field
Ġlinestyle z
oriz on
umm ies
Unk nown
çļ Ħ
* ',
/ }
9 3
9 4
> ,
? ':
A I
B ound
B lack
C ent
C ho
C ity
C ome
C ampaign
D L
D omain
E p
G re
H P
I con
J UN
M ode
N C
P ep
P acket
S k
S pa
a ce
a mble
b ro
d x
f h
f leet
f loor
g old
h s
l us
l arge
n or
n py
n atural
r s
r st
s lug
s cope
v oid
w idget
y ou
} ',
Ð º
Ð ¿
Ġt xt
st ation
er ial
at o
Ġ= "
Ġp s
Ġf un
Ġin s
Ġre cur
Ġre cipient
al ign
Ġs ensor
ct et
me m
Ġ' ).
Ġ' ').
Ġd at
Ġd ct
Ġd ns
Ġd ummy
ĠP ig
ĠP rime
Ġe t
Ġ" $
ul ing
Ġb lob
Ġst ill
Ġg ive
Ġl u
ap t
ap ache
ed ges
(' #
ma ch
ver ify
qu i
qu ire
') ;
ĠF ilter
Ġco ok
Ġ- (
ĠS ome
ĠS top
ĠS olve
con cat
ren ch
Ġx or
Ġpa ra
po w
ĠI mplement
ĠN O
ĠN ow
ĠN atural
pl ug
art ure
ĠA ff
ĠA ctiv
mat ched
ĠD raw
Ġ[] ;
Re al
ib ling
ĠB AS
ĠG iven
ho bb
ĠM i
Ġlo an
train ed
Ġu i
ĠE N
Ġsub tree
([ ])
Ġ{} )
De v
ĠU SE
min imize
ĠW hat
ĠRe act
Ġqu it
Ġqu ote
gre etings
ne sted
Ġne uron
out liers
Ġ7 2
Ġ7 8
Ġtrain ed
ĠH and
ST REAM
St udent
Ġper ms
Ġsc en
args ort
PI PE
json ify
Ġfe el
ĠĠĠĠĠĠĠĠĠĠĠĠĠĠĠĠĠĠĠĠĠĠĠĠĠĠĠĠĠĠĠĠ ĠĠĠĠĠĠĠĠĠĠĠĠĠĠĠĠĠĠĠ
temp lates
Ġro bo
gra d
dit ion
ag greg
Pro vide
Pro jection
ĠCon tact
])) )
Ġpost er
wh ich
wh itespace
CT YPE
request s
Ġimplement ing
{} ".
link ed
################################ ####
Ġ-- >
ĠCalculate s
ire less
... ')
du ction
gen ome
Ex ec
Ex pression
Ex plain
11 1
mi um
generate d
Ġhost name
side s
insert ion
Ġrender Stack
Ġremo tes
Ġback up
Ġsw itch
ĠÐ ¸
optim al
Ġ'/ ':
DO CTYPE
123 45
Ġedit able
Ġappro x
Ġclo ud
Ġconst ant
Ġ40 4
ĠDec ision
cont in
Ġhist orical
Ġ"- "
ĠCh art
lap se
cb i
Per cent
Post fix
ĠIS BN
HTTP Server
Ð¾Ð ²
bre ak
Ġcons ists
Head ers
ĠSer ver
Ġindic ates
writer ow
Ġexecut ed
ĠAt tribute
ĠDefault s
Ġhyper parameters
Imp rove
BUT TON
ĠLa mbda
Ġpermission s
.## ....
PASS WORD
FE AT
forecast sDict
DIT ION
Ġsat isf
redu ce
aff er
Ġbehavi or
Ġenco untered
ĠPRI MARY
maket rans
ETHO D
orizon tal
hobb ies
% %
, )
, )))
. ),
B S
C hoose
E num
E MAIL
F ilter
J ames
O PT
P lay
R ING
T T
T hat
V s
V ar
W E
_ (
a gs
b ad
b ow
b rand
b stract
c ircumference
d ct
d ummies
e valu
f r
f old
f ather
j et
l iter
p per
p ressed
p rincipal
r ule
r uby
s ru
s udoku
u it
v ance
v box
v otes
w ra
x is
x ff
y p
} {
Ñ ħ
æ į
æ ľ
Ġ !
Ġ (),
Ġ ------------------------------------------------------------------------
Ġ Ñģ
Ġa mong
st it
er net
at tach
en able
Ġf ully
Ġin coming
Ġs pre
Ġs ports
ct r
li ance
li min
Ġ' @
Ġd id
ĠP ri
Ġ" ?
un e
ul k
Ġb mi
Ġ# ##
Ġst ory
ch r
Ġpro xy
es pa
ad a
ad cast
Ġprint out
il on
Ġar mstrong
(" --
id l
Ġse ed
Ġse ll
Ġco me
Ġco upon
Ġcon cept
Ġcon version
ĠS cissors
ĠC an
ĠC OPY
ab ra
con v
Ġh al
Ġh app
ĠI O
py pi
ĠL atin
Re factor
Ġwh itespaces
Ġex port
ĠB oston
pro vider
Ġbe a
Ġbe come
ĠO UT
lif e
time line
Ġr c
Ġr RNA
ign ore
sh are
In itialize
par sers
Ġweb sites
ĠU I
ura dio
oc ut
ill s
Ġfa ces
pla cing
ens us
ens ors
cl ub
os ite
Ġpar sing
av util
ĠV isual
ET ING
Ġtoken ized
temp eratures
ĠJ o
')) )
Ġmy project
LE FT
Ġsu its
sp ent
Ġmean s
ĠSt ationB
Ch ain
Ġmultip lies
Ġpart icle
Me thod
emp loyer
und ant
Ġodd s
Ġno te
Ġph rases
Ġtrans late
ĠAdd ition
[:, -
pi pe
ĠGenerate s
Ġver bs
File s
Ġsnipp ets
Ġreversed String
default s
pol ygon
Ġgo ing
pri or
SER VER
================================ ================
sy m
Can not
ĠMult iply
ĠImport s
Sub sequence
Ġbot o
Ġass istant
Ġ'/ '
Code s
PT Y
\. [
conf irm
Ġsign ature
domain s
Ġpol l
Ġpol ygon
ĠMy Class
Ġexp lo
ĠPa ssword
FF FF
activ espa
Ġreceiv er
ĠRes ponse
pip env
FI EL
ĠEn ter
At tribute
Ġali as
Ġali ases
bed field
bed rooms
warning s
ĠPost greSQL
Ġpie ces
Ġge ms
multip le
Cur r
ĠMax imum
hot spot
equ ations
Ġinv oice
global s
cho ol
gi ar
repe ating
Ġobtain ed
RES P
configure d
support ed
Ġred mine
fast a
ĠConfig ure
BO ARD
mong odb
ya ml
ĠScra pe
ĠGra dient
semb ly
ĠPort erStemmer
ora ma
Ġfet ches
craw ler
ï¼ Į
Autom ate
Ġvocab ulary
Comple te
Mem ory
manage ment
Linked List
æķ° æį
Lay out
ĠDA MA
Bayes Classifier
Ignore Pep
velo per
Dif ference
NAM ES
Ġpseud ocode
ĠBAS IS
activespa ces
æķ°æį ®
' ^
. "]
. ".
4 3
5 1
5 2
> {
> {}
A g
A ct
B l
B ST
B est
B ubble
B rowser
B ACK
C re
C AS
G R
G lobal
H arry
M ary
O O
O ff
P AR
P open
R ight
R ai
T L
X C
] }')
a igns
b order
b ye
b ag
c ated
c gi
c Helper
d y
e pochs
f fe
f ruits
h g
i or
m en
m us
n ed
p end
p ascal
s izer
s amp
s alt
t ensor
u a
z tree
z oom
} %
} -\
Ð ±
Ñ Į
Ġ mp
in to
in vert
Ġt ip
Ġa gre
st on
st ra
en ing
Ġi ma
Ġf out
Ġin order
le ctor
Ġre main
Ġre pository
al num
ro ls
Ġs un
me mbers
Ġo k
Ġm oney
Ġd ue
Ġd ump
Ġw rap
Ġe ver
Ġe uclidean
Ġ" &
Ġ" '
ri al
Ġb all
Ġb charge
Ġst race
an chor
Ġg ain
Ġg ini
Ġ[ ("
ch atbot
us d
)) [
)) ):
Ġprint ed
(' _
ĠT ry
res olve
co urses
Ġ2 000
Ġdef er
') ],
ith met
string Length
ĠF ernet
app id
unt u
'] =
'] ).
from keys
Ġus r
ab sol
ĠI MPLIED
pa use
ĠN ormalize
Ġmax Value
vi sed
mo s
mo ving
mat ized
py ramid
Ġv ers
ĠL p
ĠL ongest
test ing
ser ted
ĠD ialog
ac l
Ġ4 1
pre ferences
Ġex ceptions
ĠB ack
ĠB lock
pro c
Ġkey box
Ġtext To
input String
time zone
Ġu nders
ĠE num
Ġmo ving
Ġcomp ress
Ġcomp liance
.. .")
tri bs
ĠW H
ĠR ule
gre y
ne u
ĠH anoi
St ationA
db name
Ġsc hema
Con nect
ĠIn t
ĠIn st
Ġtemp or
Ġser ialize
os u
igh ted
Ġsh uup
