{"<s>":0,"<pad>":1,"</s>":2,"<unk>":3,"<mask>":4,"!":5,"\"":6,"#":7,"$":8,"%":9,"&":10,"'":11,"(":12,")":13,"*":14,"+":15,",":16,"-":17,".":18,"/":19,"0":20,"1":21,"2":22,"3":23,"4":24,"5":25,"6":26,"7":27,"8":28,"9":29,":":30,";":31,"<":32,"=":33,">":34,"?":35,"@":36,"A":37,"B":38,"C":39,"D":40,"E":41,"F":42,"G":43,"H":44,"I":45,"J":46,"K":47,"L":48,"M":49,"N":50,"O":51,"P":52,"Q":53,"R":54,"S":55,"T":56,"U":57,"V":58,"W":59,"X":60,"Y":61,"Z":62,"[":63,"\\":64,"]":65,"^":66,"_":67,"`":68,"a":69,"b":70,"c":71,"d":72,"e":73,"f":74,"g":75,"h":76,"i":77,"j":78,"k":79,"l":80,"m":81,"n":82,"o":83,"p":84,"q":85,"r":86,"s":87,"t":88,"u":89,"v":90,"w":91,"x":92,"y":93,"z":94,"{":95,"|":96,"}":97,"~":98,"¡":99,"¢":100,"£":101,"¤":102,"¥":103,"¦":104,"§":105,"¨":106,"©":107,"ª":108,"«":109,"¬":110,"®":111,"¯":112,"°":113,"±":114,"²":115,"³":116,"´":117,"µ":118,"¶":119,"·":120,"¸":121,"¹":122,"º":123,"»":124,"¼":125,"½":126,"¾":127,"¿":128,"À":129,"Á":130,"Â":131,"Ã":132,"Ä":133,"Å":134,"Æ":135,"Ç":136,"È":137,"É":138,"Ê":139,"Ë":140,"Ì":141,"Í":142,"Î":143,"Ï":144,"Ð":145,"Ñ":146,"Ò":147,"Ó":148,"Ô":149,"Õ":150,"Ö":151,"×":152,"Ø":153,"Ù":154,"Ú":155,"Û":156,"Ü":157,"Ý":158,"Þ":159,"ß":160,"à":161,"á":162,"â":163,"ã":164,"ä":165,"å":166,"æ":167,"ç":168,"è":169,"é":170,"ê":171,"ë":172,"ì":173,"í":174,"î":175,"ï":176,"ð":177,"ñ":178,"ò":179,"ó":180,"ô":181,"õ":182,"ö":183,"÷":184,"ø":185,"ù":186,"ú":187,"û":188,"ü":189,"ý":190,"þ":191,"ÿ":192,"Ā":193,"ā":194,"Ă":195,"ă":196,"Ą":197,"ą":198,"Ć":199,"ć":200,"Ĉ":201,"ĉ":202,"Ċ":203,"ċ":204,"Č":205,"č":206,"Ď":207,"ď":208,"Đ":209,"đ":210,"Ē":211,"ē":212,"Ĕ":213,"ĕ":214,"Ė":215,"ė":216,"Ę":217,"ę":218,"Ě":219,"ě":220,"Ĝ":221,"ĝ":222,"Ğ":223,"ğ":224,"Ġ":225,"ġ":226,"Ģ":227,"ģ":228,"Ĥ":229,"ĥ":230,"Ħ":231,"ħ":232,"Ĩ":233,"ĩ":234,"Ī":235,"ī":236,"Ĭ":237,"ĭ":238,"Į":239,"į":240,"İ":241,"ı":242,"Ĳ":243,"ĳ":244,"Ĵ":245,"ĵ":246,"Ķ":247,"ķ":248,"ĸ":249,"Ĺ":250,"ĺ":251,"Ļ":252,"ļ":253,"Ľ":254,"ľ":255,"Ŀ":256,"ŀ":257,"Ł":258,"ł":259,"Ń":260,"ĠĠ":261,"ĠĠĠĠ":262,"in":263,"ĠĠĠ":264,"re":265,"Ġt":266,"Ġa":267,"st":268,"er":269,"on":270,"or":271,"at":272,"Ġ=":273,"en":274,"ĠĠĠĠĠĠĠ":275,"se":276,"de":277,"he":278,"ra":279,"Ġp":280,"Ġc":281,"Ġi":282,"Ġf":283,"Ġin":284,"le":285,"Ġre":286,"it":287,"Ġthe":288,"ar":289,"Ġn":290,"um":291,"al":292,"ro":293,"Ġs":294,"ur":295,"rin":296,"ct":297,"):":298,"th":299,"me":300,"ĠĊ":301,"ĠĠĠĠĠĠĠĠ":302,"ion":303,"li":304,"ate":305,"ge":306,"Ġo":307,"nd":308,"ut":309,"mp":310,"Ġto":311,"ent":312,"urn":313,"Ġ'":314,"turn":315,"Ġm":316,"def":317,"lf":318,"Ġd":319,"ĠP":320,"ce":321,"self":322,"ss":323,"Ġreturn":324,"Ġw":325,"Ġe":326,"yth":327,"ort":328,"ython":329,"la":330,"Ġ\"":331,"rint":332,"list":333,"Ġfor":334,"ing":335,"ĠĠĠĠĠĠĠĠĠĠĠ":336,"lo":337,"un":338,"ĠPython":339,"ue":340,"ul":341,"Ġof":342,"ri":343,"Ġb":344,"te":345,"Ġ#":346,"ode":347,"ord":348,"Ġst":349,"Ġ1":350,"Ġif":351,"--":352,"ata":353,"Ġnum":354,"ring":355,"an":356,"ers":357,"Ġand":358,"Ġg":359,"ame":360,"mport":361,"om":362,"Ġ[":363,"Ġ+":364,"Ġself":365,"iv":366,"()":367,"',":368,"ch":369,"Ġl":370,"Ġra":371,"ction":372,"di":373,"Ġpro":374,"##":375,"es":376,"__":377,"Ġ0":378,"xt":379,"ap":380,"reate":381,"ad":382,"us":383,"))":384,"ite":385,"put":386,"ram":387,"Ġth":388,"Ġlist":389,"Ġprint":390,"rom":391,"Ġ(":392,"il":393,"ol":394,"val":395,"ult":396,"end":397,"print":398,"Ġis":399,"ck":400,"gram":401,"if":402,"num":403,"ot":404,"Ġnumb":405,"ed":406,"Ġar":407,"Ġ==":408,"(\"":409,"ation":410,"('":411,"pt":412,"ma":413,"el":414,"ment":415,"ver":416,"ĠT":417,"get":418,"id":419,"is":420,"\",":421,"qu":422,"res":423,"up":424,"Ġdata":425,"Create":426,"word":427,"co":428,"Ġprogram":429,"import":430,"iz":431,"Ġstring":432,"name":433,"ig":434,"nge":435,"Ġan":436,"Ġ2":437,"==":438,"et":439,"lass":440,"Ġdef":441,"age":442,"ile":443,"')":444,"':":445,"ter":446,"ith":447,"Ġrange":448,"----":449,"odel":450,"ke":451,"ind":452,"ĠĠĠĠĠĠĠĠĠĠĠĠĠĠĠ":453,"ve":454,"Ġse":455,"ht":456,"as":457,"iven":458,"string":459,"for":460,"Ġres":461,"ĠF":462,"Ġthat":463,"Ġco":464,"Ġy":465,"data":466,"Ġgiven":467,"Ġcon":468,"Ġma":469,"ic":470,"app":471,"unt":472,"ener":473,"Ġ-":474,"Ġ{":475,"to":476,"']":477,"Ġword":478,"Ġal":479,"Ġlen":480,"pe":481,"unction":482,"ine":483,"value":484,"\")":485,"rite":486,"ĠĠĊ":487,"Ġas":488,"ĠS":489,"que":490,"lement":491,"ray":492,"ĠC":493,"Ġte":494,"enerate":495,"Ġimport":496,"ndom":497,"from":498,"####":499,"\"\"":500,"ub":501,"im":502,"Ġus":503,"00":504,"ab":505,"Ġch":506,"con":507,"ren":508,"Ġh":509,"ĠĠĠĠĠĠĠĠĠĠĠĠĠĠĠĠ":510,"['":511,"Ġfunction":512,"Ġ3":513,"ize":514,"Ġde":515,"Ġnumber":516,"Ġx":517,"key":518,"arr":519,"ew":520,"len":521,"one":522,"ase":523,"ime":524,"rain":525,"Ġel":526,"ist":527,"ir":528,"Ġresult":529,"Ġpa":530,"Ġelse":531,"po":532,"])":533,"ĠI":534,"Write":535,"pa":536,"ĠN":537,"ect":538,"],":539,"low":540,"Ġj":541,"pl":542,"Ġmax":543,"Ġ<":544,"ence":545,"Ġnumbers":546,"Ġwith":547,"od":548,"art":549,"ĠA":550,"Ġme":551,"append":552,"Ġ+=":553,"ow":554,"Ġfrom":555,"text":556,"ath":557,"str":558,"quest":559,"utput":560,"rue":561,"ta":562,"vi":563,"mo":564,"ary":565,"ci":566,"Ġ5":567,"Ġrandom":568,"Ġ%":569,"ĉĉ":570,"per":571,"Ġnot":572,"dict":573,"mat":574,"int":575,"Ġ*":576,"Ġarr":577,"cri":578,"ract":579,"Ġclass":580,"model":581,"Ġinput":582,"py":583,"numb":584,"lay":585,"Ġcode":586,"set":587,"all":588,"Ġv":589,"Ġ__":590,"gth":591,"====":592,"ĠL":593,"test":594,"cript":595,"url":596,"ser":597,"ĠD":598,"Ġvalue":599,"dex":600,"Ġsum":601,"Ġtw":602,"Ġpo":603,"ĠĠĠĠĊ":604,"row":605,"Ġ[]":606,"Ġarray":607,"--------":608,"Ġ>":609,"Re":610,"dd":611,"Ġmodel":612,"ac":613,"class":614,"Ġwh":615,"rent":616,"Ġ4":617,"ou":618,"Ġget":619,"Ġsort":620,"alc":621,"\":":622,"ms":623,"pre":624,"ex":625,"ib":626,"Ġex":627,"able":628,"Ġrequest":629,"words":630,"Ġta":631,"Ġelement":632,"Ġname":633,"mple":634,"Ġor":635,"ial":636,"Ġfind":637,"Ġle":638,"alcul":639,"ip":640,"ard":641,"alse":642,"ry":643,"ject":644,"ĠB":645,"plit":646,"pro":647,"Ġit":648,"Ġall":649,"ĠG":650,"Ġtwo":651,"ive":652,"][":653,"com":654,"Ġcur":655,"ho":656,"Ġbe":657,"heck":658,"ĠM":659,"Ġwords":660,"ctor":661,"pon":662,"Ġdi":663,"bo":664,"entence":665,"ity":666,"Ġlo":667,"Ġstr":668,"gor":669,"ĠO":670,"():":671,"gest":672,"train":673,"ces":674,"='":675,"Ġcount":676,"Ġwe":677,"Ġnew":678,"ype":679,"Ġgenerate":680,"Ġset":681,"alculate":682,"result":683,"Ġnp":684,"add":685,"lic":686,"ure":687,"ext":688,"uct":689,"########":690,"Ġusing":691,"gs":692,"son":693,"),":694,"Ġkey":695,"op":696,"ml":697,"Ġite":698,"Ġtext":699,"//":700,"ute":701,"Ġ10":702,"ree":703,"arn":704,"Ġpython":705,"itle":706,"ore":707,"ĠĠĠĠĠ":708,"Ġpre":709,"rime":710,"cess":711,"lif":712,"ĠNone":713,"ssword":714,"ance":715,"input":716,"ken":717,"ponse":718,"ĠTrue":719,"time":720,"oup":721,"cur":722,"Ġr":723,"our":724,"init":725,"aract":726,"enc":727,"count":728,"we":729,"ĠFalse":730,"Generate":731,"Ġu":732,"Ġla":733,"Ġcol":734,"ns":735,"ĠĠĠĠĠĠĠĠĠĠĠĠĠĠĠĠĠĠĠ":736,"file":737,"sum":738,"__(":739,"cs":740,"Ġscript":741,"arch":742,"Ġuser":743,"Ġ\"\"\"":744,"Ġon":745,"ign":746,"split":747,"ample":748,"ĠE":749,"date":750,"array":751,"Ġcom":752,"sort":753,"Ġelif":754,"ph":755,"ft":756,"Ġmin":757,"kes":758,"bject":759,"path":760,"sh":761,"ĠThe":762,"Ġ8":763,"numbers":764,"ify":765,"Ġk":766,"verse":767,"Ġfile":768,"thod":769,"ssion":770,"Ġhe":771,"lib":772,"=\"":773,"are":774,"Ġsub":775,"([":776,"Ġmo":777,"Ġtakes":778,"Ġare":779,"Ġadd":780,"ild":781,"Ġcreate":782,"fe":783,"gorith":784,"ys":785,"ust":786,"html":787,"bel":788,"Ġcalculate":789,"max":790,"Ġmat":791,"ies":792,"ach":793,"Ġitem":794,"gorithm":795,"tp":796,"Ġ:":797,"form":798,"ssage":799,"Ġbo":800,"Ġ6":801,")):":802,"mail":803,"index":804,"Ġap":805,"Ġcharact":806,"In":807,"ght":808,"Ġoutput":809,"root":810,"and":811,"read":812,"Ġrequests":813,"ack":814,"requ":815,"Ġalgorithm":816,"core":817,"ror":818,"tent":819,"Ġ{}":820,"mon":821,"ĠCreate":822,"Ġtest":823,"ang":824,"move":825,"ff":826,"Ġcheck":827,"Ġcomp":828,"par":829,"ifi":830,"rix":831,"learn":832,"10":833,"De":834,"Ġsk":835,"red":836,"Ġup":837,"sit":838,"Ġweb":839,"ument":840,"rame":841,"Ġtime":842,"Ġby":843,"tain":844,"right":845,"teg":846,"length":847,"ĠU":848,"ctionary":849,"ption":850,"========":851,"ptim":852,"..":853,"Ġstrings":854,"find":855,"vert":856,"Ġcurrent":857,"Ġinto":858,"las":859,"min":860,"uld":861,"Ġuse":862,"ations":863,"http":864,"ura":865,"irst":866,"ly":867,"tri":868,"Ġrow":869,"ator":870,"ibon":871,"acci":872,"ibonacci":873,"tal":874,"eld":875,"his":876,"ĠW":877,"ink":878,"Ġwhile":879,"jo":880,"main":881,"izer":882,"\"\"\"":883,"fit":884,"number":885,"ield":886,"ĠRe":887,"Ġqu":888,"Ġsklearn":889,"oc":890,"Ġend":891,"ĠR":892,"duct":893,"ug":894,"Ġeach":895,"The":896,"Ġint":897,"mb":898,"gre":899,"layer":900,"ongest":901,"Ġlength":902,"ne":903,"ight":904,"Ġtotal":905,"ok":906,"ense":907,"Ġne":908,"Ġchar":909,"out":910,").":911,"Ġ7":912,"ER":913,"Ġmethod":914,"ĠOutput":915,"node":916,"da":917,"Ġsentence":918,"format":919,"\"]":920,"iment":921,"ill":922,"base":923,"Ġline":924,"Ġsho":925,"Ġpd":926,"rice":927,"title":928,"Ġsorted":929,"Ġfa":930,"True":931,"items":932,"Ġtrain":933,"imum":934,"ĠH":935,"Ġout":936,"col":937,"Ġfol":938,"ther":939,"ST":940,"rans":941,"ud":942,"ters":943,"lower":944,"----------------":945,"St":946,"user":947,"Ġinteg":948,"size":949,"fo":950,"random":951,"nums":952,"Ġ9":953,"ery":954,"://":955,"Ġelements":956,"entiment":957,"Ġprime":958,"Ġjson":959,"Ġshould":960,"item":961,"pla":962,"db":963,"ens":964,"!=":965,"quence":966,"Ġ/":967,"type":968,"Ġdictionary":969,"my":970,"ec":971,"Ġnode":972,"Ġun":973,"Ġfollow":974,"Ġcan":975,"Ġreturns":976,"sub":977,"oi":978,"Ġper":979,"Des":980,"ea":981,"line":982,"Ġac":983,"csv":984,"Ġindex":985,"lask":986,"Ġsc":987,"token":988,"Ġ!=":989,"ound":990,"sc":991,"arget":992,"Ġat":993,"lot":994,"Con":995,"fa":996,"Ġ_":997,"bin":998,"Ġval":999,"lt":1000,"join":1001,"les":1002,"lop":1003,"Ġ''":1004,"char":1005,"ty":1006,"ĠIn":1007,"Ġreverse":1008,"start":1009,"og":1010,"Ġfollowing":1011,"[:":1012,"element":1013,"order":1014,"]:":1015,"čĊ":1016,"ix":1017,"Ġapp":1018,"cl":1019,"est":1020,"Design":1021,"**":1022,"of":1023,"sentence":1024,"Ġcontain":1025,"Ġresponse":1026,"ifier":1027,"Ġpassword":1028,"ari":1029,"Ġstart":1030,"ld":1031,"ates":1032,"Ġobject":1033,"cy":1034,"Ġtemp":1035,"Ġvalues":1036,"uth":1037,"ich":1038,"'])":1039,"velop":1040,"ature":1041,"ven":1042,"label":1043,"ating":1044,"Ġ['":1045,"ctions":1046,"ant":1047,"iful":1048,"utiful":1049,"ĠCo":1050,"head":1051,"ww":1052,"cept":1053,"())":1054,"################":1055,"Ġspe":1056,"Ġ{'":1057,"ures":1058,"eautiful":1059,"List":1060,"its":1061,"Ġfirst":1062,"cond":1063,"Ġos":1064,"Soup":1065,"Ġser":1066,"etwe":1067,"eautifulSoup":1068,"state":1069,"etween":1070,"ave":1071,"ON":1072,"ng":1073,"els":1074,"Ġdate":1075,"ted":1076,"Ġen":1077,"ork":1078,"args":1079,"Ġwhich":1080,"password":1081,"Ġ}":1082,"fig":1083,"Ġlongest":1084,"Ġyou":1085,"Ġsearch":1086,"ĠBeautifulSoup":1087,"lst":1088,"tr":1089,")]":1090,"uild":1091,"\".":1092,"ick":1093,"place":1094,"Ġnumpy":1095,"[\"":1096,"os":1097,"load":1098,"</":1099,"ble":1100,"Ġbetween":1101,"Ġpar":1102,"igh":1103,"ay":1104,"log":1105,"ock":1106,"Ġthis":1107,"ye":1108,"oice":1109,"stance":1110,"response":1111,"ide":1112,"Ġsh":1113,"mplement":1114,"Develop":1115,"atures":1116,"ource":1117,"loc":1118,"PI":1119,"Ġremove":1120,"am":1121,"gument":1122,"Ġext":1123,"cura":1124,"Ġcharacters":1125,"mit":1126,"IN":1127,"ask":1128,"req":1129,"comp":1130,"curacy":1131,"eras":1132,"code":1133,"Ġconvert":1134,"port":1135,"ency":1136,"json":1137,"Ġdist":1138,"board":1139,"ique":1140,"av":1141,"dir":1142,"ustom":1143,"Ġ)":1144,"Ġhas":1145,"new":1146,"let":1147,"Ġdataset":1148,"ses":1149,"ded":1150,"vice":1151,"ersion":1152,"itial":1153,"Ġstore":1154,"Ġlet":1155,"next":1156,"Ġwill":1157,"20":1158,"orld":1159,"rror":1160,"Ġfil":1161,"ob":1162,"Ġpath":1163,"ĠX":1164,"ress":1165,"mand":1166,"ello":1167,"vector":1168,"This":1169,"Ġprints":1170,"em":1171,"loat":1172,"].":1173,"verage":1174,"._":1175,"return":1176,"Error":1177,"score":1178,"example":1179,"play":1180,"mal":1181,"roup":1182,"Ġdis":1183,"pen":1184,"mage":1185,"Ġurl":1186,"lose":1187,"ain":1188,"ong":1189,"values":1190,"umn":1191,"ions":1192,"AT":1193,"Ġtitle":1194,"ors":1195,"script":1196,"Ġorder":1197,"Ġpage":1198,"Ġbase":1199,"ep":1200,"Ġoptim":1201,"Hello":1202,"ĠV":1203,"ctiv":1204,"Ġfe":1205,"Ġemail":1206,"message":1207,"prime":1208,"'s":1209,"df":1210,"atter":1211,"Ġboard":1212,"ible":1213,"ĠĠĠĠĠĠĠĠĠĠĠĠĠĠĠĠĠĠĠĠĠĠĠ":1214,"ET":1215,"ome":1216,"argest":1217,"point":1218,"En":1219,"requency":1220,"ak":1221,"river":1222,"Ġtable":1223,"Ġtarget":1224,"ape":1225,"resent":1226,"content":1227,"ule":1228,"Ġproduct":1229,"rect":1230,"ault":1231,"lication":1232,"ĠPrint":1233,"ll":1234,"indow":1235,"plot":1236,"left":1237,"by":1238,"vent":1239,"ĠĠĠĠĠĠĠĠĊ":1240,"ost":1241,"ES":1242,"Ġ20":1243,"strings":1244,"ding":1245,"Ġroot":1246,"Ġmatrix":1247,"Ġintegers":1248,"fil":1249,"Ġid":1250,"Ġcharacter":1251,"case":1252,"Ġ[\"":1253,"Ġtoken":1254,"ĠĠĠĠĠĠĠĠĠĠĠĠĠĠĠĠĠĠĠĠĠĠĠĠĠĠĠĠĠĠĠĠ":1255,"Ġlib":1256,"Ġmult":1257,"Ġ100":1258,"Ġvari":1259,"temp":1260,"choice":1261,"own":1262,"but":1263,"ĠJ":1264,"Ġsentiment":1265,"Name":1266,"uplic":1267,"ert":1268,"ific":1269,"Ġage":1270,"ango":1271,"curs":1272,"Ġits":1273,"Ġposit":1274,"__':":1275,"rome":1276,"Ġ'__":1277,"'))":1278,"ltk":1279,"Ġro":1280,"pop":1281,"Ġmessage":1282,"ise":1283,"Ġmaximum":1284,"gression":1285,"sert":1286,"predict":1287,"uage":1288,"error":1289,"rand":1290,"plt":1291,"view":1292,"gra":1293,"erge":1294,"100":1295,"alind":1296,"ated":1297,"Ġnums":1298,"work":1299,"lection":1300,"Ġdatabase":1301,"sorted":1302,"https":1303,"conn":1304,"Ġlog":1305,"Ġ<=":1306,"String":1307,"Ġlink":1308,"Ġone":1309,"inary":1310,"Ġsoup":1311,"ĠĠĠĠĠĠ":1312,"Ġextract":1313,"lat":1314,"page":1315,"price":1316,"12":1317,"Ġmy":1318,"ĠFlask":1319,"ql":1320,"Ġtype":1321,"cre":1322,":\",":1323,"dit":1324,"search":1325,"Ġlabel":1326,"'}":1327,"ategor":1328,"Ġrun":1329,"Ġmost":1330,"'],":1331,"================":1332,"Âł":1333,"ndas":1334,"cord":1335,"raw":1336,"ecute":1337,"ude":1338,"ename":1339,"matrix":1340,"Ġpoint":1341,"ag":1342,"Ġ\"\"":1343,"ref":1344,"alindrome":1345,"Ġhead":1346,"ĠIf":1347,"Ġenc":1348,"Ġnltk":1349,"trans":1350,"Ġany":1351,"lock":1352,"ast":1353,"','":1354,"Ġlibra":1355,"Ġ`":1356,"ark":1357,"Ġloop":1358,"SE":1359,"Ġpandas":1360,"AR":1361,"Ġclassify":1362,"Ġ('":1363,"Ġz":1364,"sed":1365,"process":1366,"ĠGet":1367,"Ġopen":1368,"Co":1369,"Ġdo":1370,"ĠSe":1371,"Ġpredict":1372,"idth":1373,"udent":1374,"ange":1375,"Ġlst":1376,"LE":1377,"Ġdiv":1378,"Ġsecond":1379,"Ġmethods":1380,"Ġfactor":1381,"Ġspec":1382,"]]":1383,"lient":1384,"OR":1385,"posit":1386,"ending":1387,"jango":1388,"run":1389,"ĠFibonacci":1390,"ĠK":1391,"Ġright":1392,"Ġ\",":1393,"Ġcontent":1394,"Pro":1395,"email":1396,"Ġsol":1397,"ax":1398,"Ġemp":1399,"div":1400,"Ġbre":1401,"scription":1402,"ĠDe":1403,"ugh":1404,"mean":1405,"ized":1406,"Ġresults":1407,"'.":1408,"nguage":1409,"rough":1410,"Ġgra":1411,"RL":1412,"otal":1413,"output":1414,"info":1415,"Ġthrough":1416,"Ġvalid":1417,"Ġover":1418,"object":1419,"ines":1420,"layers":1421,"mbda":1422,"Ġread":1423,"table":1424,"dif":1425,"ical":1426,"ĠAPI":1427,"=['":1428,"Ġhave":1429,"rid":1430,"old":1431,"che":1432,"led":1433,"''":1434,"parser":1435,"ssert":1436,"((":1437,"attern":1438,"Ġargument":1439,"else":1440,"odule":1441,"inter":1442,"sequence":1443,"ocument":1444,"Ġ\")":1445,"ector":1446,"Ġcommon":1447,"ĠReturn":1448,"Ġquery":1449,"Class":1450,"with":1451,"Ġtry":1452,"alue":1453,"ĠThis":1454,"Ġleft":1455,"Se":1456,"write":1457,"Ġbreak":1458,"Ġsys":1459,"arning":1460,"âĢ":1461,"ative":1462,"Ġformat":1463,"Ġ[[":1464,"Ġargs":1465,"qual":1466,"rence":1467,"atus":1468,"Ġscra":1469,"site":1470,"Ġtf":1471,"Ġsy":1472,"Ġplayer":1473,"ML":1474,"itialize":1475,"Ġeven":1476,"ton":1477,"Ġdif":1478,"Ġgre":1479,"ual":1480,"Ġexcept":1481,"ustomer":1482,"NT":1483,"Ġtree":1484,"ptions":1485,"ient":1486,"stem":1487,"ĉĉĉ":1488,"dian":1489,"owels":1490,"Ġother":1491,"(),":1492,"Num":1493,"nder":1494,"Ġwhe":1495,"mount":1496,"ĠCon":1497,"struct":1498,"hn":1499,"so":1500,"ulation":1501,"rameters":1502,"Ġli":1503,"Ġsu":1504,"parse":1505,"Ġitems":1506,"uthor":1507,"Ġvariable":1508,"Ġcommand":1509,"ĠĠĠĠĠĠĠĠĠ":1510,"Ġletter":1511,"arg":1512,"Data":1513,"mut":1514,"sp":1515,"Ġcor":1516,"ution":1517,"Ġdict":1518,"Ġlargest":1519,"quare":1520,"pression":1521,"ater":1522,"map":1523,"Ġfound":1524,"api":1525,"ĠY":1526,"pp":1527,"lect":1528,"cores":1529,"Ġactiv":1530,"Ġthan":1531,"Ġunique":1532,"Ġsequence":1533,"IT":1534,"RE":1535,"Ġscore":1536,"Ġmean":1537,"ired":1538,"rit":1539,"erson":1540,"dictions":1541,"agram":1542,"Ġent":1543,"Ġ//":1544,"ils":1545,"Ġ\\":1546,"().":1547,"Enter":1548,"vel":1549,"Ġoper":1550,"Ġmake":1551,"param":1552,"]))":1553,"ars":1554,"product":1555,"ĠSt":1556,"query":1557,"lete":1558,"www":1559,"ĠTo":1560,"ĠCheck":1561,"lob":1562,"Ġpost":1563,"tree":1564,"rices":1565,"Ġ12":1566,"dig":1567,"Ġwrite":1568,"Ġbinary":1569,"lp":1570,"Ġdisplay":1571,"host":1572,"Ġvector":1573,"ĠHT":1574,"ls":1575,"Ġmerge":1576,"ps":1577,"Ġprice":1578,"Ġaverage":1579,"Ġinteger":1580,"False":1581,"cal":1582,"Ġnext":1583,"randint":1584,"None":1585,"total":1586,"unter":1587,"Ġbs":1588,"('/":1589,"Ch":1590,"Ġmultip":1591,"\",\"":1592,"angle":1593,"64":1594,"To":1595,"route":1596,"Ġsize":1597,"md":1598,"present":1599,"Ġdf":1600,"valu":1601,"python":1602,"queue":1603,"Ġpass":1604,"RO":1605,"Ar":1606,"ten":1607,"tag":1608,"},":1609,"Ġpy":1610,"Ġtheir":1611,"Ġmid":1612,"ets":1613,"wh":1614,"CT":1615,"rel":1616,"Ġgame":1617,"Ġpart":1618,"terate":1619,"yz":1620,"request":1621,"cor":1622,"ohn":1623,"stri":1624,"Ġfloat":1625,"post":1626,"keras":1627,"Ġdb":1628,"valid":1629,"execute":1630,"Ġmain":1631,"uplicates":1632,"Ġactivation":1633,"ler":1634,"ĠNode":1635,"Ġpop":1636,"Ġ>=":1637,"Ġcurr":1638,"cii":1639,"Ġ|":1640,"Ġdig":1641,"ake":1642,"env":1643,"replace":1644,"tect":1645,"models":1646,"AL":1647,"ries":1648,"keys":1649,"Ġcall":1650,"pred":1651,"Field":1652,"field":1653,"ting":1654,"Ġconn":1655,"--------------------------------":1656,"Ġlists":1657,"fix":1658,"current":1659,"der":1660,"Ġimplement":1661,"ĠDriver":1662,"DE":1663,"common":1664,"clude":1665,"range":1666,"Ġlanguage":1667,"ory":1668,"Ġinter":1669,"vie":1670,"Regression":1671,"25":1672,"Ġtra":1673,"ber":1674,"close":1675,"Ġupdate":1676,"lease":1677,"ody":1678,"Ġdatetime":1679,"late":1680,"Ġdefault":1681,"Ġlast":1682,"Ġtk":1683,"Ġfrequency":1684,"dius":1685,"Ġ-=":1686,"Ġflask":1687,"inal":1688,"ally":1689,"Ġ11":1690,"Ġarea":1691,"icense":1692,"Ġparse":1693,"ender":1694,"{}":1695,"ĠLo":1696,".__":1697,"Me":1698,"ĠURL":1699,"Implement":1700,"freq":1701,"group":1702,"Ġ**":1703,"\"))":1704,"Ġcontains":1705,"cle":1706,"Ġ25":1707,"fine":1708,"Ġcolumn":1709,"ius":1710,"link":1711,"Ġ15":1712,"shape":1713,"Ġprovi":1714,"ĠEx":1715,"ference":1716,"Ġ'''":1717,"uff":1718,"Ġrepresent":1719,"ĠWorld":1720,"ĠFunction":1721,"Ġapplication":1722,"loye":1723,"Ġyour":1724,"emp":1725,"gative":1726,"ascii":1727,"bot":1728,"cursor":1729,"Ġused":1730,"und":1731,"ctory":1732,"pack":1733,"transform":1734,"PO":1735,"ĠPro":1736,"ision":1737,"imal":1738,"Ġversion":1739,"spe":1740,"Ġtop":1741,"config":1742,"ipp":1743,"Ġaccuracy":1744,"idx":1745,"Ġquick":1746,"Ġempty":1747,"John":1748,"Ġso":1749,"etch":1750,"Ġrequ":1751,"formation":1752,"td":1753,"ous":1754,"ential":1755,"icle":1756,"Ġbook":1757,"Dense":1758,"Res":1759,"Ġdocument":1760,"cent":1761,"Ġprocess":1762,"Ġfactorial":1763,"Ġinst":1764,"Ġlearning":1765,"elements":1766,"32":1767,"Ġlinear":1768,"Ġfeatures":1769,"AB":1770,"bug":1771,")))":1772,"Ġclassifier":1773,"ĠLicense":1774,"requent":1775,"ming":1776,"umns":1777,"UT":1778,".\")":1779,"{'":1780,"tes":1781,"Ġwebsite":1782,"################################":1783,"Value":1784,"Ġ--":1785,"Ġhtml":1786,"Ġodd":1787,"unct":1788,"Ġlower":1789,"[-":1790,"hed":1791,"lest":1792,"phab":1793,"Ġcontaining":1794,"Ġbased":1795,"etwork":1796,"Ġplt":1797,"lambda":1798,"Ġtwe":1799,"alyz":1800,"Ġfibonacci":1801,"Ġsn":1802,"Ġdp":1803,"Ġart":1804,"resh":1805,"Ġkeras":1806,"ural":1807,"gn":1808,"ĠCalculate":1809,"Construct":1810,"hel":1811,"Ġ(\"":1812,"features":1813,"Classifier":1814,"org":1815,"ply":1816,"mallest":1817,"cat":1818,"Ġhand":1819,"valuate":1820,"back":1821,"ire":1822,"child":1823,"Ġbest":1824,"Ġupper":1825,"Element":1826,"Vector":1827,"yn":1828,"charact":1829,"ĠHTML":1830,"Ġ')":1831,"upper":1832,"ful":1833,"Ġraise":1834,"Ġ',":1835,"ility":1836,"asic":1837,"Ġmatch":1838,"ified":1839,"cies":1840,"create":1841,"method":1842,"Ġno":1843,"Ġdec":1844,"SON":1845,"ĠĠĠĠĠĠĠĠĠĠĠĠĠĠĠĠĠĠĠĠĠĠĠĠ":1846,"book":1847,"ensor":1848,"ava":1849,":]":1850,"ca":1851,"Ġ@":1852,"Ġtask":1853,"Ġph":1854,"isible":1855,"ublic":1856,"ĠInitialize":1857,"Ġserver":1858,"erature":1859,"heit":1860,"alary":1861,"renheit":1862,"Ġonly":1863,"'):":1864,"version":1865,"Ġtrans":1866,"ception":1867,"accuracy":1868,"diction":1869,"Ġsubstring":1870,"hrenheit":1871,"ols":1872,"Ġdefine":1873,"spa":1874,"Ġparameters":1875,"Ġposition":1876,"Ġlibrary":1877,"ĠDefine":1878,"attr":1879,"Ġoc":1880,"bs":1881,"check":1882,"soup":1883,"000":1884,"Ġdetect":1885,"ptimize":1886,"Ġlabels":1887,"Ġencry":1888,"Ġthem":1889,"inear":1890,"Ġdire":1891,"Ġdistance":1892,"sw":1893,"ormal":1894,"not":1895,"sv":1896,"Ġcap":1897,"dis":1898,"istic":1899,"...":1900,"rate":1901,"unc":1902,"Ġminimum":1903,"ivot":1904,"Ġdep":1905,"99":1906,"EN":1907,"Ġman":1908,"tered":1909,"Ġfilter":1910,"du":1911,"image":1912,"Ġcost":1913,"ification":1914,":-":1915,"lem":1916,"Ġcont":1917,"digits":1918,"cap":1919,"ose":1920,"Ġparent":1921,"Ġexpression":1922,"ffic":1923,"Ġaddress":1924,"Ġjsonify":1925,"flow":1926,"np":1927,"Ġye":1928,"width":1929,"Ġmath":1930,"Ġconfig":1931,"address":1932,"instance":1933,"Ġstate":1934,"Ġvowels":1935,"ins":1936,"status":1937,"Ġmodule":1938,"trics":1939,"gen":1940,"sing":1941,"target":1942,"Ġinformation":1943,"Ġstack":1944,"rences":1945,"tact":1946,"nection":1947,"phabet":1948,"Ġsql":1949,"connect":1950,"no":1951,"Ġvis":1952,"50":1953,"grid":1954,"Ġerror":1955,"Ġsource":1956,"server":1957,"ÂłÂł":1958,"relu":1959,"player":1960,"ĠĠĠĠĠĠĊ":1961,"selection":1962,"ross":1963,"Ġcombin":1964,"obj":1965,"frame":1966,"imple":1967,"ited":1968,"Ġmark":1969,":',":1970,"her":1971,"longest":1972,"Ġthen":1973,"ell":1974,"names":1975,"Ġtake":1976,"ighb":1977,"AC":1978,"Ex":1979,"mid":1980,"Ġpermut":1981,"rap":1982,"Ġinsert":1983,"').":1984,"ĠAdd":1985,"source":1986,"show":1987,"Ġpoints":1988,"Di":1989,"window":1990,"Vectorizer":1991,"11":1992,"An":1993,"dep":1994,"arity":1995,"pos":1996,"Ġcompute":1997,"cost":1998,"Ġstruct":1999,"do":2000,"ather":2001,"[:,":2002,"Ġident":2003,"!\")":2004,"amp":2005,"cd":2006,"pi":2007,"chine":2008,"ĠIterate":2009,"scores":2010,"ssible":2011,"Ġexist":2012,"points":2013,"graph":2014,".\"":2015,"ID":2016,"Id":2017,"try":2018,"Ġbuild":2019,"ĠGenerate":2020,"Ġfiles":2021,"lean":2022,"ĠSplit":2023,"loyee":2024,"assert":2025,"pes":2026,"Ġsplit":2027,"ĉĉĉĉ":2028,"Sort":2029,"Ġver":2030,"Ġcategor":2031,"Ġcustomer":2032,"tokenize":2033,"year":2034,"compile":2035,"QL":2036,"remove":2037,"utton":2038,"ights":2039,"day":2040,"ware":2041,"})":2042,"Ġhelp":2043,"xx":2044,"Ġ.":2045,"description":2046,"Ġcal":2047,"ital":2048,"Ġspa":2049,"ĠTrain":2050,"box":2051,"ĠJSON":2052,"Ġgreater":2053,"function":2054,"first":2055,"dataset":2056,"Ġcounts":2057,"username":2058,"Ġparser":2059,"ner":2060,"sample":2061,"umer":2062,"utf":2063,"Ġbasic":2064,"ization":2065,"Ġmedian":2066,"encode":2067,"File":2068,"Ġcolor":2069,"Python":2070,"qr":2071,"unctu":2072,"float":2073,"Ġmore":2074,"Ġ30":2075,"ments":2076,"ĠLinear":2077,"game":2078,"wargs":2079,"orm":2080,"Ġsame":2081,"linear":2082,"Ġsnipp":2083,"IC":2084,"ME":2085,"Ġreversed":2086,"ning":2087,"atch":2088,"ĠTest":2089,"Ġusers":2090,"Ġhigh":2091,"mi":2092,"Ġamount":2093,"strip":2094,"go":2095,"Ġfield":2096,"filename":2097,"has":2098,"pted":2099,")-":2100,"hat":2101,"Ġpalindrome":2102,"ition":2103,"alance":2104,"quential":2105,"ĠCount":2106,"hest":2107,"Ġstudent":2108,"Ġ''.":2109,"fficient":2110,"ush":2111,"Ġanagram":2112,"trib":2113,"reverse":2114,"stack":2115,"'),":2116,"(__":2117,"body":2118,"Ġtraining":2119,"andom":2120,"top":2121,"Ġperform":2122,"Ġarguments":2123,"Ġpla":2124,"letters":2125,"=(":2126,"LO":2127,"sentiment":2128,"Ġlow":2129,"lish":2130,"omial":2131,"Number":2132,"Po":2133,"Ġreplace":2134,"Ġtag":2135,"feature":2136,"Ġwhether":2137,"Ġmodels":2138,"Ġpredictions":2139,"last":2140,"come":2141,"Ġdelete":2142,"ccess":2143,"Ġabo":2144,"des":2145,"default":2146,"ĠMake":2147,"Ġcomput":2148,"ger":2149,"ighest":2150,"generate":2151,"wo":2152,"Ġpattern":2153,"Ġiter":2154,"ubble":2155,"0000":2156,"Ġsets":2157,"ĠComp":2158,"rc":2159,"omain":2160,"Ġoptimize":2161,"Ġsnippet":2162,"Ġcase":2163,"Ġfreq":2164,"Ġequal":2165,"Ġmachine":2166,"ownload":2167,"while":2168,"ĠLoad":2169,"Ġter":2170,"TP":2171,"ster":2172,"enu":2173,"ular":2174,"Ġhost":2175,"Ġoccur":2176,"Tree":2177,"ves":2178,"GET":2179,"lines":2180,"Ġgen":2181,"Ġgroup":2182,"plotlib":2183,"tf":2184,"area":2185,"ts":2186,"Ġtup":2187,"ities":2188,"Ġsup":2189,"Ġsquare":2190,"Ġstock":2191,"distance":2192,"Ġ</":2193,"cial":2194,"15":2195,"nk":2196,")+":2197,"Build":2198,"pol":2199,"Max":2200,"clf":2201,"reg":2202,"Ġsqlite":2203,"sys":2204,"Ġgo":2205,"Ġdescription":2206,"Ġpositive":2207,"position":2208,"Ġdiffe":2209,"ĠQ":2210,"Ġav":2211,"Ġchild":2212,"characters":2213,"ays":2214,"ey":2215,"Ġsim":2216,"Ġ\"))":2217,"ĠSet":2218,"Ġpossible":2219,"[::-":2220,"views":2221,"Optimize":2222,"categor":2223,"even":2224,"xml":2225,"usr":2226,"ĠAr":2227,"Ġrows":2228,"chars":2229,"params":2230,"POST":2231,"Ġtri":2232,"Ġ'.":2233,"pri":2234,"Ġvariables":2235,"hello":2236,"side":2237,"task":2238,"insert":2239,"Ġimage":2240,"Ġfit":2241,"Ġmovie":2242,"Ġrecord":2243,"dim":2244,"Ġmove":2245,"Ġlibraries":2246,"30":2247,"Ġthree":2248,"ness":2249,"Ġinclude":2250,"counts":2251,"SER":2252,"Ġpivot":2253,"Ġpair":2254,"ches":2255,"act":2256,"Ġ,":2257,"atic":2258,"Ġarg":2259,"uster":2260,"labels":2261,"================================":2262,"lobal":2263,"NA":2264,"mine":2265,"Ġsample":2266,"ocket":2267,"Ġletters":2268,"ĠLinearRegression":2269,");":2270,"Len":2271,"Ġreg":2272,"Ġkeys":2273,"14":2274,"Sum":2275,"man":2276,"Ġsmallest":2277,"ĠĠĠĠĠĠĠĠĠĠĠĠĊ":2278,"ĠĠĠĊ":2279,"lections":2280,"unique":2281,"Ġ{\"":2282,"Ġyear":2283,"frequency":2284,"hand":2285,"tra":2286,"Ġcl":2287,"ension":2288,"elsius":2289,"local":2290,"Given":2291,"iply":2292,"Ġclient":2293,"iron":2294,"Ġmatplotlib":2295,"Ġrequired":2296,"nel":2297,"uration":2298,"Ġevent":2299,"Ġ\"__":2300,"__)":2301,"img":2302,"Ġencode":2303,"Pa":2304,"ie":2305,"parent":2306,"ging":2307,"ru":2308,"encies":2309,"Ġfunctions":2310,"Ġcolumns":2311,"lasses":2312,"alyzer":2313,"Ġax":2314,"Ġside":2315,"__\":":2316,"dify":2317,"ĠĠĠĠĠĠĠĠĠĠĠĠĠ":2318,"Ġwindow":2319,"Ġfeature":2320,"unctuation":2321,"ION":2322,"action":2323,"Ġclose":2324,"Ġseen":2325,"ipher":2326,"be":2327,"Ġdeter":2328,"Ġdigits":2329,"Dict":2330,"Ġob":2331,"ĠPre":2332,"ĠĠĠĠĠĠĠĠĠĠĠĠĠĠĠĠĠĠĠĠĠĠĠĠĠĠĠ":2333,"pattern":2334,"iter":2335,"Ġoptions":2336,"'''":2337,"ares":2338,"django":2339,"mode":2340,"send":2341,"Ġtensor":2342,"cessary":2343,"sy":2344,"Ġfo":2345,"Ġmon":2346,"ĠList":2347,"substring":2348,"latten":2349,"Ġdifferent":2350,"Can":2351,"IS":2352,"pr":2353,"txt":2354,"vol":2355,"Ġqueue":2356,"Ġrender":2357,"Ġcomple":2358,"most":2359,"open":2360,"sol":2361,"rop":2362,"Ġsome":2363,"Ġnames":2364,"ĠMult":2365,"Ġprev":2366,"Ġsystem":2367,"]+":2368,"mary":2369,"Ġpresent":2370,"Ġexample":2371,"Ġcollections":2372,"Ġspecified":2373,"Type":2374,"Ġheight":2375,"letter":2376,"the":2377,"debug":2378,"Ġstructure":2379,"'t":2380,"Ġ]":2381,"rest":2382,"Ġaction":2383,"ats":2384,"io":2385,"orest":2386,"Comp":2387,"16":2388,"Frame":2389,"ek":2390,"ont":2391,"argument":2392,"Ġwidth":2393,"ĠImport":2394,"Ġcompare":2395,"factor":2396,"Ġspecific":2397,"\"])":2398,"NB":2399,"Node":2400,"fibonacci":2401,"palindrome":2402,"std":2403,"section":2404,"Ġgue":2405,"update":2406,"Ġjob":2407,"Ġload":2408,"Ġdirectory":2409,"]])":2410,"Ġremo":2411,"Ġfilename":2412,"cret":2413,"Ne":2414,"event":2415,"sign":2416,"entro":2417,"Ġlong":2418,"idf":2419,"pect":2420,"match":2421,"nt":2422,"Ġnetwork":2423,"ssing":2424,"umerate":2425,"NU":2426,"ds":2427,"ĠFind":2428,"SS":2429,"ĠĠĠĠĠĠĠĠĠĠĠĠ":2430,"Ġhighest":2431,"Ġpack":2432,"Ġenv":2433,"height":2434,"tem":2435,"face":2436,"blem":2437,"Ġsuch":2438,"Ġpopulation":2439,"Ġtensorflow":2440,"Ġsing":2441,"Ġstop":2442,"ana":2443,"tribut":2444,"Ġenumerate":2445,"Ġtokens":2446,"ighbors":2447,"01":2448,"HO":2449,"average":2450,"Ġequ":2451,"ĠLog":2452,"Text":2453,"device":2454,"radius":2455,"apple":2456,"location":2457,"Ġscraper":2458,"(-":2459,"You":2460,"ale":2461,"author":2462,"duplicates":2463,"ral":2464,"ull":2465,"dist":2466,"ftware":2467,"45":2468,"Col":2469,"doc":2470,"Ġwas":2471,"very":2472,"Ġunder":2473,"Ġseries":2474,"ayes":2475,"Ġwhere":2476,"OT":2477,"part":2478,"Ġform":2479,"Ġback":2480,"'].":2481,"tails":2482,"rows":2483,"Ġwhen":2484,"Ġboth":2485,"Ġnecessary":2486,"Sub":2487,"Ġsw":2488,"ircle":2489,"datetime":2490,"=[":2491,"na":2492,"}')":2493,"Ġalphabet":2494,"Ġdesc":2495,"Ġwithout":2496,"stru":2497,"Ġsolution":2498,"Ġdivisible":2499,"IL":2500,"Mo":2501,"dictionary":2502,"Ġchange":2503,"Ġinstall":2504,"client":2505,"cending":2506,"quares":2507,"Ġprovided":2508,"den":2509,"kwargs":2510,"Ġinstance":2511,"ved":2512,"Ġperson":2513,"ability":2514,"Ġlinks":2515,"fields":2516,"qrt":2517,"ĠCountVectorizer":2518,"twe":2519,"Ġparam":2520,"Ser":2521,"UR":2522,"ĠÐ":2523,"raction":2524,"limit":2525,"uplicate":2526,"Ġcalled":2527,"-%":2528,":\")":2529,"Test":2530,"Ġrev":2531,"Ġblock":2532,"pyplot":2533,"ĠData":2534,"Ġpermutations":2535,".\"\"\"":2536,"RA":2537,"Set":2538,"net":2539,"now":2540,"Ġad":2541,"ings":2542,"enerator":2543,"Ġneed":2544,"color":2545,"population":2546,"Length":2547,"tributes":2548,"Time":2549,"lag":2550,"ache":2551,"ED":2552,"auth":2553,"Ġaut":2554,"copy":2555,"duce":2556,"Ġanagrams":2557,"block":2558,"poch":2559,"web":2560,"!\"":2561,"#!":2562,"ik":2563,"ward":2564,"Ġport":2565,"ĠAN":2566,"proper":2567,"commit":2568,"Ġhash":2569,"processing":2570,"Ġmerged":2571,"Ġprogramming":2572,"Ġsolve":2573,"use":2574,"Ġbot":2575,"adata":2576,"Ġusername":2577,"Ġcontin":2578,"elif":2579,"href":2580,"ia":2581,"heap":2582,"Ġcv":2583,"tokens":2584,"Ġtemperature":2585,"Ġidentify":2586,"ait":2587,"inomial":2588,"alys":2589,"lable":2590,"dia":2591,"Ġthread":2592,"ĠSort":2593,"alysis":2594,"Ġauthor":2595,"Ġ50":2596,"HT":2597,"He":2598,"options":2599,"level":2600,"ume":2601,"ader":2602,".')":2603,"largest":2604,"eneral":2605,"Ġ32":2606,"trie":2607,"Ġnegative":2608,"ROM":2609,"Result":2610,"EST":2611,"build":2612,"Ġdjango":2613,"project":2614,"Ġloc":2615,"Array":2616,"Ġvisited":2617,"Ġhttp":2618,"Ġass":2619,"Ġprices":2620,"umps":2621,"Ġsm":2622,"ances":2623,"coding":2624,"ĠRandom":2625,"Ġobjects":2626,"ĠSequential":2627,"Ġmultiple":2628,"Mat":2629,"bar":2630,"session":2631,"aries":2632,"util":2633,"Ġcopy":2634,"icles":2635,"pair":2636,"ĠCounter":2637,"correct":2638,"Input":2639,"argv":2640,"riter":2641,"Ġsingle":2642,"EX":2643,"EY":2644,"other":2645,"seq":2646,"Ġcsv":2647,"Ġdest":2648,"ĠRead":2649,"33":2650,"Ġmode":2651,"Ġscrape":2652,"city":2653,"Ġ{}\".":2654,"CH":2655,"MA":2656,"uz":2657,"Ġfrequent":2658,"make":2659,"ages":2660,"predictions":2661,"([[":2662,"binary":2663,"loads":2664,"filter":2665,"Edit":2666,"Using":2667,"atbot":2668,"arse":2669,"Ġcondit":2670,"button":2671,"ving":2672,"Ġthere":2673,"utes":2674,"Ġproblem":2675,"Ġvectorizer":2676,"amount":2677,"optim":2678,"ules":2679,"column":2680,"Ġcorrect":2681,"Ġhandle":2682,"swer":2683,"80":2684,"ai":2685,"sor":2686,"Ġcipher":2687,"Ġ'/":2688,"Ġ16":2689,"dices":2690,"abel":2691,"access":2692,"ESS":2693,"Ġenter":2694,"uzz":2695,"fter":2696,"two":2697,"anana":2698,"ĠIt":2699,"Ġmetrics":2700,"\"],":2701,"DO":2702,"ties":2703,"sec":2704,"Ġim":2705,"Ġsimple":2706,"ĠĠĠĠĠĠĠĠĠĠ":2707,"ends":2708,"command":2709,"LECT":2710,"over":2711,"ĠâĢ":2712,"reen":2713,"Ġinitial":2714,"ribut":2715,"Ġproper":2716,"Ġ200":2717,"Ġselect":2718,"vide":2719,"ipel":2720,"ĠReturns":2721,"Ġlike":2722,"Ġlowercase":2723,"#!/":2724,"tadata":2725,"Ġretrie":2726,"Ġisinstance":2727,"Ġconnection":2728,"Ġcontinue":2729,"balance":2730,"reating":2731,"Ġcmd":2732,"utils":2733,"Ġmod":2734,"*(":2735,"Fa":2736,"cast":2737,"uid":2738,"Ġpad":2739,"Ġregression":2740,"Ġworld":2741,"span":2742,"ower":2743,"template":2744,"Ġphone":2745,"ipeline":2746,"iloc":2747,"inf":2748,"Ġimp":2749,"itude":2750,"round":2751,"Ġwin":2752,"ans":2753,"Ġdevice":2754,"UL":2755,"roll":2756,"Ġsp":2757,"ird":2758,"ING":2759,"student":2760,"land":2761,"Ġradius":2762,"ily":2763,"ready":2764,"gress":2765,"Ġservice":2766,"ATE":2767,"ĠMultinomial":2768,"!')":2769,"DB":2770,"Model":2771,"Ġcalcul":2772,"xtract":2773,"ĠCode":2774,"Ġfinds":2775,"ĠUse":2776,"off":2777,"ĉĊ":2778,"Ġassert":2779,"secret":2780,"Ġrecurs":2781,"Ġorig":2782,"rypt":2783,"Ġtimes":2784,"Ġdetermine":2785,"13":2786,"fs":2787,"sk":2788,"zer":2789,"}\")":2790,"stop":2791,"Ġnon":2792,"ulate":2793,"any":2794,"Ġallow":2795,"Ġdistribut":2796,"*-":2797,"call":2798,"Ġlayer":2799,"dest":2800,"Ġ\"\\":2801,"Ġ[],":2802,"CO":2803,"mark":2804,"tk":2805,"Ġplot":2806,"Ġcustom":2807,"Ġmust":2808,"ither":2809,"Ġdigit":2810,"msg":2811,"Ġhere":2812,"grade":2813,"123":2814,"SELECT":2815,"uffle":2816,"Ġaxis":2817,"entropy":2818,".'":2819,"fore":2820,"dient":2821,"':'":2822,"ĠSta":2823,"vies":2824,"phone":2825,"ĠJava":2826,"space":2827,"dle":2828,"pdate":2829,"Ġduplicates":2830,"ĠFROM":2831,"Ġascending":2832,"ister":2833,"ponding":2834,"Ġshow":2835,"Ġfiltered":2836,"var":2837,"Ġoption":2838,"Ġpos":2839,"andler":2840,"antity":2841,"ĠValue":2842,"Ġmultiply":2843,"ĠMultinomialNB":2844,"Ac":2845,"Bo":2846,"No":2847,"sqrt":2848,"Ġabs":2849,"Ġevery":2850,"Ġnumer":2851,"vious":2852,"requencies":2853,"Ġneural":2854,"ariable":2855,"42":2856,"pus":2857,"yle":2858,"Ġquest":2859,"ran":2860,"ceiv":2861,"Ġ-*-":2862,"bose":2863,"....":2864,"AS":2865,"Dir":2866,"frequent":2867,"record":2868,"Ġclean":2869,"urse":2870,"classifier":2871,"Ġcalculates":2872,"cli":2873,"cmd":2874,"func":2875,"Ġnormal":2876,"Ġwork":2877,"Ġedit":2878,"ids":2879,"Ġprediction":2880,"files":2881,"Ġ},":2882,"Ġdoes":2883,"Ġabout":2884,"({'":2885,"Com":2886,"PAT":2887,"punctuation":2888,"rol":2889,"diff":2890,"ĠID":2891,"comm":2892,"Int":2893,"Index":2894,"Ġnodes":2895,"Ġshort":2896,"Ġlinked":2897,"Ġoperator":2898,"Ġarticle":2899,"tribute":2900,"ĠLogistic":2901,"AN":2902,"Ġincre":2903,"\").":2904,"ogle":2905,"Ġ1000":2906,"Ġcorres":2907,"DI":2908,"cross":2909,"square":2910,"ze":2911,"Ġframe":2912,"ĠFa":2913,"ĠGeneral":2914,"Ġcursor":2915,"Ġlambda":2916,"Ġfast":2917,"down":2918,"alf":2919,"Ġbut":2920,"tools":2921,"abc":2922,"Ġinputs":2923,"usters":2924,"Ġappro":2925,")/":2926,".*":2927,"customer":2928,"ied":2929,"Ġ&":2930,"stock":2931,"eng":2932,"Ġclasses":2933,"Ġfetch":2934,"gex":2935,"ĠPublic":2936,"Ġ\"+":2937,"Ġoutputs":2938,"depth":2939,"pochs":2940,"ling":2941,"stamp":2942,"change":2943,"aps":2944,"ilarity":2945,"Ġalready":2946,"ĠIs":2947,"odd":2948,"Ġsorting":2949,"Ġspecial":2950,"\">":2951,"Forest":2952,"]):":2953,"driver":2954,"Ġscores":2955,"Ġ\".":2956,"ĠYou":2957,"Ġmonth":2958,"SV":2959,"eded":2960,"gin":2961,"sql":2962,"Ġpri":2963,"Ġincl":2964,"Ġ'--":2965,"Ġeither":2966,"isode":2967,"ĠINT":2968,"except":2969,"ĠGNU":2970,"ĠException":2971,"Ġcorresponding":2972,"Script":2973,"Ġbu":2974,"Ġcontact":2975,"Convert":2976,"Ġlogging":2977,"tings":2978,"Ġcapital":2979,"ironment":2980,"\"):":2981,"CD":2982,"Handler":2983,"fetch":2984,"Ġag":2985,"here":2986,"Ġclf":2987,"Ġinitialize":2988,"Ġdays":2989,"ĠParse":2990,"Ġbubble":2991,"Ġraw":2992,"ĠAI":2993,"ĠExtract":2994,"Ġprimes":2995,"Ġattributes":2996,"types":2997,"Ġtriangle":2998,"24":2999,"KEY":3000,"Please":3001,"salary":3002,"cket":3003,"Ġchatbot":3004,"ĠĠĠĠĠĠĠĠĠĠĠĠĠĠĠĠĠĠ":3005,"ĠDo":3006,"Ġweights":3007,"pha":3008,"URL":3009,"prices":3010,"tup":3011,"Ġsci":3012,"Ġgcd":3013,"adam":3014,"license":3015,")[":3016,"Equal":3017,"HER":3018,"Path":3019,"User":3020,"eb":3021,"Ġcell":3022,"Ġwrit":3023,"terest":3024,"Ġ13":3025,"ources":3026,"19":3027,"Fibonacci":3028,"ores":3029,"sg":3030,"Ġsalary":3031,"ĠĠĠĠĠĠĠĠĠĠĠĠĠĠ":3032,"Ġaccess":3033,"Ġemails":3034,"LI":3035,"vers":3036,"Ġclo":3037,"lists":3038,"ĠSentiment":3039,"ube":3040,"mbed":3041,"ĠProgram":3042,"tract":3043,"ĠSQL":3044,"vices":3045,"rown":3046,"Ġclosest":3047,"Ġalso":3048,"\"),":3049,"Ġchoice":3050,"Ġchars":3051,"days":3052,"Ġ):":3053,"Ġtrue":3054,"store":3055,"second":3056,"Ġmi":3057,"Ġdoc":3058,"rameter":3059,"Ġproducts":3060,"Ġtkinter":3061,"ĠRandomForest":3062,"78":3063,"Un":3064,"Ġ'-":3065,"Ġevaluate":3066,"Ġclassification":3067,"extraction":3068,"Ġurllib":3069,"Ġgrade":3070,"Ġuppercase":3071,"What":3072,"ales":3073,"vowels":3074,"Ġpe":3075,"Ġ\"/":3076,"anagram":3077,"ĠUser":3078,"Ġsuccess":3079,"ĠLogisticRegression":3080,",\"":3081,"Code":3082,"Ġsend":3083,"Ġglobal":3084,"Ġdel":3085,"ensity":3086,"bytes":3087,"Ġzip":3088,"Ġgraph":3089,"Char":3090,"Ġencrypted":3091,"Ġcombinations":3092,"Key":3093,"Of":3094,"RI":3095,"Ġafter":3096,"Ġnth":3097,"ash":3098,"Ġcoding":3099,"Ġexec":3100,"eps":3101,"Count":3102,"Search":3103,"drop":3104,"mult":3105,"wd":3106,"language":3107,"loop":3108,"ris":3109,"mag":3110,"Ġconst":3111,"Ġdetails":3112,"results":3113,"Ġdiff":3114,"children":3115,"({":3116,"(['":3117,"bound":3118,"src":3119,"tle":3120,"delete":3121,"Analyzer":3122,"Add":3123,"PT":3124,"high":3125,"sm":3126,"Ġinfo":3127,"als":3128,"Ġproject":3129,"Ġsepar":3130,"Ġ40":3131,"Ġaccept":3132,"objects":3133,"âĢĻ":3134,"Message":3135,"Ġbooks":3136,"Ġautom":3137,"rating":3138,"Ġflag":3139,"Ġepochs":3140,"Ġ[(":3141,"users":3142,"'][":3143,"\":\"":3144,"licy":3145,"Ġchecks":3146,"Ġuses":3147,"reshape":3148,"reshold":3149,"Ġcomputer":3150,"Ġparams":3151,":%":3152,"bability":3153,"Ġlines":3154,"ctionaries":3155,"Ġanother":3156,"Ġcounter":3157,"']]":3158,"Request":3159,"weight":3160,"uggest":3161,"ĠInput":3162,"Ġlimit":3163,"display":3164,"assertEqual":3165,"crossentropy":3166,"AD":3167,"\\.":3168,"efficient":3169,"module":3170,"Ġsave":3171,")),":3172,"ĠDense":3173,"prefix":3174,"Ġleast":3175,"Ġencrypt":3176,"+=":3177,"hi":3178,"Ġpub":3179,"ĠĠĠĠĠĠĠĠĠĠĊ":3180,"Ġefficient":3181,"ics":3182,"job":3183,"Ġsentences":3184,"wise":3185,"Ġord":3186,"omin":3187,"aper":3188,"idual":3189,"conf":3190,"ĠNum":3191,"ĠBo":3192,"Word":3193,"stall":3194,"onent":3195,"loss":3196,"Ġlat":3197,"iled":3198,"ĠFit":3199,"ĠĠĠĠĠĠĠĠĠĠĠĠĠĠĠĠĠĠĠĠĠĠĠĠĠĠĠĠĠĠĠ":3200,"prediction":3201,"exit":3202,"sumer":3203,"Ġkn":3204,"Ġobj":3205,"property":3206,"Al":3207,"SQL":3208,"lin":3209,"ote":3210,"Ð¾":3211,"atural":3212,"numer":3213,"Ġloss":3214,"weather":3215,"Ġmultiplication":3216,"iki":3217,"Item":3218,"card":3219,"pu":3220,"Ġty":3221,"Ġplay":3222,"Ġpush":3223,"urs":3224,"Ġday":3225,"Ġduplicate":3226,"cell":3227,"Ġbutton":3228,"Ġanalysis":3229,"asing":3230,"1000":3231,"pected":3232,"90":3233,"]*":3234,"ba":3235,"mer":3236,"Ġsign":3237,"('\\":3238,"Ġwithin":3239,"acity":3240,"combin":3241,"Ġprevious":3242,"Intensity":3243,")**":3244,"domain":3245,"option":3246,"Ġì":3247,"dev":3248,"cels":3249,"ift":3250,"(\"\\":3251,"inder":3252,"sets":3253,"exp":3254,"udo":3255,"Ġconnect":3256,"Ġsupport":3257,"21":3258,"au":3259,"metrics":3260,"Ġstd":3261,"ĠDec":3262,"login":3263,"positive":3264,"Ġencoded":3265,"Ġretrieve":3266,"PATH":3267,"ĠIsland":3268,"ĠSentimentIntensity":3269,"celsius":3270,"Par":3271,"cm":3272,"Ġdictionaries":3273,"month":3274,"teger":3275,"Str":3276,"dified":3277,"Ġoperation":3278,"Ġoperations":3279,"Ġtasks":3280,"ĠSentimentIntensityAnalyzer":3281,"40":3282,"AP":3283,"CS":3284,"Prime":3285,"``":3286,"Ġpol":3287,"dire":3288,"cont":3289,"ĠApp":3290,"ĠMy":3291,"Ġfactors":3292,"sequences":3293,"Ġpairs":3294,">\"":3295,"API":3296,"tom":3297,"Ġpower":3298,"Ġret":3299,"']:":3300,"Ġapi":3301,"Ġexisting":3302,"Ġfields":3303,"Ġdescending":3304,"opt":3305,"Ðµ":3306,"leep":3307,"imize":3308,"Ġgenerates":3309,"Ġ::":3310,"primes":3311,"'})":3312,"center":3313,"Ġverbose":3314,"Ġcategories":3315,"optimizer":3316,"Th":3317,"itch":3318,"ropo":3319,"lice":3320,"Ġstatus":3321,"izing":3322,"Ġanswer":3323,"Ġexp":3324,"Ġless":3325,"Ġplace":3326,"mbedding":3327,"af":3328,"mar":3329,"vm":3330,"Ġcard":3331,"Ġip":3332,"Ġour":3333,"Ġ28":3334,"Ġchr":3335,"Ġcreates":3336,"filtered":3337,"derr":3338,"Ġenvironment":3339,"ĠValueError":3340,"ropout":3341,"(*":3342,"UN":3343,"banana":3344,"ian":3345,"ux":3346,"zip":3347,"Ġauth":3348,"Ġstores":3349,"Ġhist":3350,"inked":3351,"products":3352,"Ġtuple":3353,"ominator":3354,"/'":3355,"By":3356,"dot":3357,"dog":3358,"merge":3359,"ination":3360,"Ġsent":3361,"Ġdownload":3362,"ĠPa":3363,"Ġ\"-":3364,"ely":3365,"']['":3366,"ists":3367,"Ġkeyword":3368,"ĠUpdate":3369,"lowercase":3370,"fahrenheit":3371,"Get":3372,"HE":3373,"cu":3374,"Ġq":3375,"Ġ...":3376,"Ġcar":3377,"Ġfib":3378,"Ġ\"%":3379,"Ġ\"<":3380,"eta":3381,"Ġyield":3382,"database":3383,"Ġcontext":3384,"ĠDjango":3385,"ĠOR":3386,"'},":3387,"Ġdivis":3388,"ĠConvert":3389,"Ġprovide":3390,"Ġguess":3391,"App":3392,"Ġiterate":3393,"ĠPerson":3394,"Ġwo":3395,"ordin":3396,"------":3397,"until":3398,"urls":3399,"Ġexecute":3400,"rypted":3401,"DataFrame":3402,"Ġtweet":3403,"hash":3404,"Ġcluster":3405,"CK":3406,"US":3407,"aler":3408,"Ġdir":3409,"lank":3410,"ish":3411,"article":3412,"weights":3413,"Ġlengths":3414,"digit":3415,"Ġtweets":3416,"={":3417,"><":3418,"document":3419,"ech":3420,"Ġsquares":3421,"Ġop":3422,"roman":3423,"contain":3424,"permut":3425,"Ġsorts":3426,"Ġlocal":3427,"Ġweight":3428,"Ġdivide":3429,"Ġtuples":3430,"Column":3431,"?)":3432,"Or":3433,"Scal":3434,"sig":3435,"ream":3436,"Ġct":3437,"irt":3438,"extend":3439,"Info":3440,"negative":3441,"Ġtitles":3442,"contents":3443,"posts":3444,"Age":3445,"FF":3446,"Val":3447,"menu":3448,"dec":3449,"Ġ'%":3450,"Ġ'{":3451,"ouse":3452,"Ġmodify":3453,"Ġappe":3454,"Ġattr":3455,"vectorizer":3456,"Ġspam":3457,"Ġlocation":3458,"calculate":3459,"sup":3460,"rase":3461,"Ġfunc":3462,"Ġbatch":3463,"annel":3464,"ĠIN":3465,"ORT":3466,"Ġpygame":3467,"rapper":3468,"/%":3469,"Function":3470,"Label":3471,"Trans":3472,"activ":3473,"bu":3474,"dl":3475,"gender":3476,"sim":3477,"Ð¸":3478,"Ġ$":3479,"decode":3480,"Ġcity":3481,"Ġsocket":3482,"lied":3483,"Ġold":3484,"utral":3485,"expression":3486,"Ġrating":3487,"maining":3488,"header":3489,"Ġdocuments":3490,"Ġcategory":3491,"200":3492,"Le":3493,"Output":3494,"bayes":3495,"dumps":3496,"tmp":3497,"lis":3498,"entic":3499,"Ġ'',":3500,"ssors":3501,"Ġ17":3502,"Ġ->":3503,"ĠAS":3504,"preprocessing":3505,"Ġemployee":3506,"spam":3507,"Ġterms":3508,"Ġoccurrences":3509,"Ġrecords":3510,"Button":3511,"elem":3512,"Ġreceiv":3513,"ump":3514,"Ġ18":3515,"ĠText":3516,"ason":3517,"ĠCelsius":3518,"ĠĠĠĠĠĠĠĠĠĠĠĠĠĠĠĠĠ":3519,"]),":3520,"ĠMe":3521,"Incorrect":3522,"ĠRes":3523,"mber":3524,"****":3525,"ants":3526,"soft":3527,"ALU":3528,"categorical":3529,"Ġmissing":3530,"Ġwould":3531,"Base":3532,"mod":3533,"err":3534,"Ġcraw":3535,"Ġcreating":3536,"Ġthey":3537,"Ġelem":3538,"Ġ14":3539,"ically":3540,"ĠNOT":3541,"curr":3542,"columns":3543,"headers":3544,"Ġoptimized":3545,"ĠString":3546,"Ġimplements":3547,"Ġimg":3548,"zeros":3549,"'\\":3550,"'{":3551,"Size":3552,"XX":3553,"less":3554,"ites":3555,"Ġslow":3556,"ctx":3557,"mployee":3558,"Ġstand":3559,"dic":3560,"Ġhow":3561,"Ġdes":3562,"Return":3563,"Ġnamed":3564,"Ġoptimizer":3565,"ager":3566,"Ġarticles":3567,"Ġdecimal":3568,"xxxx":3569,"solution":3570,"Object":3571,"bt":3572,"desc":3573,"Ġfinal":3574,"enter":3575,"ĠPo":3576,"Ġbrown":3577,"ĠFor":3578,"movie":3579,"Ġlevel":3580,"Ġtesting":3581,"cording":3582,"Ġmiddle":3583,"Ġquicksort":3584,"gressor":3585,"ĠFahrenheit":3586,"Parser":3587,"18":3588,"pip":3589,"save":3590,"Ð°":3591,"rea":3592,"arm":3593,"ĠSV":3594,"Ġparameter":3595,"pose":3596,"Ġtags":3597,"ĠMo":3598,"Ġsubject":3599,"Ġsubprocess":3600,"Ġheader":3601,"ĠSee":3602,"older":3603,"Ġposts":3604,"ĠLoop":3605,"uppercase":3606,"polarity":3607,"localhost":3608,"DF":3609,"FI":3610,"fidf":3611,"su":3612,"ui":3613,"Ġflatten":3614,"Ġind":3615,"Ġindices":3616,"ality":3617,"Ġmsg":3618,"ident":3619,"Ġrate":3620,"Ġendpoint":3621,"Ġaccording":3622,"Ġappend":3623,"ĠCopy":3624,"!'":3625,"CA":3626,"cv":3627,"draw":3628,"nn":3629,"zy":3630,"inct":3631,"ank":3632,"Ġgender":3633,"ĠCh":3634,"contact":3635,"Ġvol":3636,"ĠEvaluate":3637,"books":3638,"Ġfox":3639,"Ġoriginal":3640,"ĠRandomForestClassifier":3641,"bers":3642,"car":3643,"mn":3644,"non":3645,"Ġcircle":3646,"Ġdraw":3647,"Ġgrid":3648,"dio":3649,"ĠTfidf":3650,"pass":3651,"Ġreads":3652,"Ġtraverse":3653,"links":3654,"handle":3655,"Ġcomplex":3656,"naive":3657,"/{":3658,"Dist":3659,"Pre":3660,"Window":3661,"epy":3662,"hist":3663,"Ġrepe":3664,"Ġreport":3665,"utive":3666,"Ġdriver":3667,"Ġ19":3668,"idden":3669,"Ġ21":3670,"ĠSo":3671,"abs":3672,"ĠBuild":3673,"Ġbelow":3674,"Ġmatches":3675,"findall":3676,"sentences":3677,"ongo":3678,"Ġseconds":3679,"Ġtrack":3680,"LOG":3681,"Ġsuper":3682,"ailable":3683,"60":3684,"Home":3685,"OP":3686,"mily":3687,"nal":3688,"normal":3689,"win":3690,"Ġbody":3691,"ider":3692,"Ġxml":3693,"Ġmem":3694,"strong":3695,"ople":3696,"([\"":3697,"ĠVector":3698,"isionTree":3699,"HERE":3700,"World":3701,"cache":3702,"ice":3703,"report":3704,"Ġtmp":3705,"ero":3706,"hex":3707,"median":3708,"distri":3709,"icode":3710,"ensions":3711,"axis":3712,"ACE":3713,"Ġabove":3714,"Ġproperties":3715,"irtual":3716,"\"}":3717,"cc":3718,"gue":3719,"Ġwant":3720,"chain":3721,"izes":3722,"apping":3723,"ĠNe":3724,"moid":3725,"cip":3726,"mble":3727,"Ġvalidate":3728,"Ġsymb":3729,"caten":3730,"Ġmanage":3731,"Ġavg":3732,"ensional":3733,"Ġequation":3734,"isionTreeClassifier":3735,"17":3736,"xlabel":3737,"real":3738,"Ġact":3739,"metadata":3740,"ndard":3741,"lap":3742,"Ġ\"_":3743,"Ġoff":3744,"Ġ24":3745,"Ġcourse":3746,"service":3747,"Ġsubtract":3748,"ysql":3749,"oices":3750,"icket":3751,"Ġgradient":3752,"empty":3753,"Ġsoftware":3754,"Ġtweepy":3755,"js":3756,"math":3757,"olean":3758,"vis":3759,"xi":3760,"ylabel":3761,"lags":3762,"Ġgener":3763,"Ġprobability":3764,"ĠAn":3765,"Ġ80":3766,"ched":3767,"Ġentry":3768,"----------------------------------------------------------------":3769,"ĠExample":3770,"Ġperformance":3771,"SERT":3772,"secutive":3773,"ordinates":3774,"\"{":3775,"DAT":3776,"IP":3777,"]['":3778,"ftime":3779,"Ġfin":3780,"lim":3781,"uter":3782,"Ġmap":3783,"lack":3784,"ĠĠĠĠĠĠĠĠĠĠĠĠĠĠĠĠĊ":3785,"ĠĠĠĠĠĠĠĠĠĠĠĠĠĠĠĠĠĠĠĠĠ":3786,"ĠLe":3787,"ĠModel":3788,"ĠEn":3789,"Ġwebpage":3790,"INT":3791,"Ġintersection":3792,"256":3793,"ĠANY":3794,"ĠDoe":3795,"22":3796,"Lo":3797,"Use":3798,"cb":3799,"ogram":3800,"your":3801,"del":3802,"Ġselection":3803,"forms":3804,"Ġjo":3805,"Ġbeen":3806,"ĠMain":3807,"Ġ60":3808,"fitness":3809,"ĠREST":3810,"Ġdatasets":3811,"ITY":3812,"ABLE":3813,"Ġdecision":3814,"stdout":3815,"tweet":3816,"EXT":3817,"fetchall":3818,"At":3819,"Not":3820,"how":3821,"pk":3822,"person":3823,"world":3824,"unit":3825,"gramming":3826,"asure":3827,"ĠCall":3828,"ewrite":3829,"compound":3830,"Ġrot":3831,"Ġheaders":3832,"category":3833,"structor":3834,"tweets":3835,"My":3836,"RNA":3837,"ires":3838,"wer":3839,"Ġuntil":3840,"style":3841,"orig":3842,"room":3843,"Ġdataframe":3844,"ĠLinked":3845,"adding":3846,"inputs":3847,"Ġ{}'.":3848,"cluster":3849,"Ġoptimization":3850,"means":3851,"Ġdifference":3852,"sole":3853,"samples":3854,"Pool":3855,"priate":3856,"Scaler":3857,"IST":3858,"UP":3859,"ernel":3860,"Ġdomain":3861,"verted":3862,"ĠTra":3863,"Ġsession":3864,"ĠWAR":3865,"ĠRun":3866,"INSERT":3867,"ĠHTTP":3868,"ync":3869,"Ġavailable":3870,"ĠPredict":3871,"Ġshortest":3872,"++":3873,"GER":3874,"Min":3875,"oid":3876,"atio":3877,"Ġfrequencies":3878,"Ġnow":3879,"Ġmut":3880,"Ġdone":3881,"reatest":3882,"Ġdebug":3883,"Ġgenerated":3884,"âĢĿ":3885,"attrs":3886,"Ġpackage":3887,"Server":3888,"ĠINTO":3889,"ALUES":3890,"Rewrite":3891,"SI":3892,"aut":3893,"dtype":3894,"fg":3895,"fin":3896,"ÑĤ":3897,"ined":3898,"ene":3899,"select":3900,"lev":3901,"ĠTO":3902,"Ġconf":3903,"context":3904,"Ġhy":3905,"Ġhour":3906,"starts":3907,"'}),":3908,"Ġcontents":3909,"Ġdisplays":3910,"speed":3911,"Ġexists":3912,"Modify":3913,"Ġrecursive":3914,"CharField":3915,"hen":3916,"Ġremaining":3917,"('-":3918,"elcome":3919,"Ġprefix":3920,"short":3921,"Inter":3922,"cols":3923,"alyze":3924,"456":3925,"uzzle":3926,"Ġappropriate":3927,"apsack":3928,",-":3929,"IO":3930,"It":3931,"Ind":3932,"LA":3933,"\\\"":3934,"ae":3935,"bl":3936,"release":3937,"urtle":3938,"Ġdog":3939,"eting":3940,"Ġmay":3941,"contrib":3942,"strftime":3943,"Ġsubstrings":3944,"Ġ90":3945,"system":3946,"Ġcondition":3947,"Ġdistributed":3948,"?,":3949,"aa":3950,"clo":3951,"public":3952,"sses":3953,"Â°":3954,"Ġ'<":3955,"Ġ'\\":3956,"Ġstats":3957,"ĠTree":3958,"cogn":3959,"tax":3960,"Ġrandomly":3961,"ĠUn":3962,"ĠVALUES":3963,"Ġidx":3964,"pository":3965,"Ġdepth":3966,"ĠJavaScript":3967,"Ġstandard":3968,".',":3969,"VER":3970,"_='":3971,"best":3972,"iew":3973,"kit":3974,"Ġam":3975,"rary":3976,"Ġcelsius":3977,"urch":3978,"Ġway":3979,"ilt":3980,"(\"%":3981,"coder":3982,"Ġho":3983,"cissors":3984,"uding":3985,"screen":3986,"128":3987,"corpus":3988,"Ġ255":3989,"Ġdepend":3990,"capital":3991,"video":3992,"lished":3993,"(_":3994,"EL":3995,"New":3996,"UI":3997,"UM":3998,"Ġreview":3999,"idget":4000,"Ġanimal":4001,"Ġ26":4002,"Ġlook":4003,"ĠOF":4004,"orecast":4005,"achine":4006,"ators":4007,"Ġquantity":4008,"Ġattribute":4009,"ART":4010,"ĠStudent":4011,"spec":4012,"Ġgene":4013,"volume":4014,"/<":4015,"Image":4016,"ration":4017,"reh":4018,"Ġpi":4019,"Ġpipeline":4020,"unk":4021,"Ġ((":4022,"Ġ(-":4023,"ĠSto":4024,"ĠCom":4025,"tags":4026,"ĉĉĉĉĉ":4027,"tric":4028,"Ġeng":4029,"Ġencoding":4030,"ĠToken":4031,"Ġitertools":4032,"HomeDir":4033,"Date":4034,"fn":4035,"oper":4036,"thing":4037,"Ġ\"--":4038,"Ġblog":4039,"()[":4040,"=='":4041,"vec":4042,"pedia":4043,"connection":4044,"ialize":4045,"arest":4046,"occur":4047,"ĠKey":4048,"Sorted":4049,".,":4050,">'":4051,">',":4052,"For":4053,"aive":4054,"bit":4055,"cum":4056,"nect":4057,"wiki":4058,"stderr":4059,"()]":4060,"Ġsee":4061,"consumer":4062,"exists":4063,"Ġweather":4064,"Ġnews":4065,"pping":4066,"Ġpermutation":4067,"Ġstopwords":4068,"Ġmodules":4069,"Ġquestion":4070,"Ġwritten":4071,"softmax":4072,"ĠCopyright":4073,"urchase":4074,":])":4075,"MP":4076,"Per":4077,"Post":4078,"ball":4079,"king":4080,"ĠZ":4081,"Ġreal":4082,"ives":4083,"appy":4084,"ĠClass":4085,"ĉĉĊ":4086,"periment":4087,"ĠBase":4088,"phi":4089,"ĠWHERE":4090,"Ġpaths":4091,"temperature":4092,"Ġrunning":4093,"NAME":4094,"Ġsmtp":4095,"Accuracy":4096,"ĠTfidfVectorizer":4097,">\\":4098,"png":4099,"ertain":4100,"Ġfont":4101,"Ġnatural":4102,"entry":4103,"ĠPy":4104,"Ġbalance":4105,"tex":4106,"ĠIS":4107,"Ġexit":4108,"home":4109,"Ġcreated":4110,"plain":4111,"Ġaccount":4112,"Ġstarting":4113,"ABC":4114,"ighbor":4115,"signal":4116,"RANT":4117,"ĠStandard":4118,"btn":4119,"ĠWARRANT":4120,"startswith":4121,"PE":4122,"Qu":4123,"custom":4124,"}\".":4125,"Ġutf":4126,"Ġreduce":4127,"alpha":4128,"Ġdon":4129,"Ġed":4130,"Ġproces":4131,"endar":4132,"Ġkeywords":4133,"nodes":4134,"Ġunit":4135,"emails":4136,"ĠCompute":4137,"HTTP":4138,"Ġassign":4139,"Ġconditions":4140,"Ð¾Ð":4141,"Calculate":4142,"ele":4143,"gle":4144,"sent":4145,"tc":4146,"this":4147,"Ġ'*":4148,"Ġ22":4149,"Ġrespon":4150,"Ġcoefficient":4151,"const":4152,"Ġfinding":4153,"Ġsettings":4154,"ĠEmployee":4155,"Ġaddition":4156,"Ġcompreh":4157,"Ġunsorted":4158,"Means":4159,"encoded":4160,"tasks":4161,"Ġframework":4162,"itespa":4163,"ĠSoftware":4164,"+'":4165,"88":4166,"Line":4167,"Suggest":4168,"imag":4169,"sleep":4170,"way":4171,"ority":4172,"light":4173,"Ġep":4174,"ane":4175,"()))":4176,"ramid":4177,"ĠĠĠĠĠĠĠĠĠĠĠĠĠĠĠĠĠĠĠĠ":4178,"neighbors":4179,"scale":4180,"Ġrequire":4181,"register":4182,"ĠQu":4183,"Ġswap":4184,"squared":4185,"05":4186,"Find":4187,"View":4188,"ered":4189,"raph":4190,"Ġref":4191,"arge":4192,"alog":4193,"Ġopt":4194,"Ġ'))":4195,"Ġstor":4196,"ĠSw":4197,"setup":4198,"Ġsummary":4199,"Ġarrays":4200,"Ġbefore":4201,"Ġlazy":4202,"shuffle":4203,"State":4204,"avg":4205,"news":4206,"Ġlogin":4207,"Ġerrors":4208,"mission":4209,"Ġfitness":4210,"Ġtypes":4211,")*":4212,"/\"":4213,"75":4214,"=%":4215,"Log":4216,"true":4217,"Ġali":4218,"Ġindiv":4219,"Ġdim":4220,"admin":4221,"mac":4222,"texts":4223,"Invalid":4224,"\"].":4225,"Ġperm":4226,"Ġsyn":4227,"loyees":4228,"character":4229,")])":4230,"::":4231,"Client":4232,"Go":4233,"Ġcertain":4234,"uture":4235,"layout":4236,"expr":4237,"anguage":4238,"clusters":4239,"Ġconverts":4240,"istics":4241,"Ġsimilarity":4242,"denominator":4243,"ĠâĢľ":4244,"combinations":4245,"23":4246,"Check":4247,"End":4248,"Player":4249,"]],":4250,"aes":4251,"bine":4252,"generator":4253,"half":4254,"wait":4255,"}'":4256,"Ã©":4257,"ĠĠĠĠĠĊ":4258,"reviews":4259,"sted":4260,"eratures":4261,"Ġfull":4262,"Ġsrc":4263,"Ġrand":4264,"ptr":4265,"resses":4266,"movies":4267,"Ġ*=":4268,"Ġhel":4269,"subject":4270,"ILITY":4271,"Form":4272,"bre":4273,"bed":4274,"download":4275,"smallest":4276,"socket":4277,"wx":4278,"stand":4279,"ones":4280,"orange":4281,"Ġinterest":4282,"itions":4283,"alphabet":4284,"Ġshe":4285,"Ġtool":4286,"Ġbin":4287,"ĠFOR":4288,"convert":4289,"ĠName":4290,"ĠAl":4291,"paths":4292,"=\"\")":4293,"fault":4294,"Ġspeed":4295,"Sequential":4296,"groups":4297,"Ġsmall":4298,"english":4299,"sigmoid":4300,"GE":4301,"Java":4302,"Random":4303,"ier":4304,"}/":4305,"Ġturn":4306,"Ġcross":4307,"three":4308,"thread":4309,"Ġ[-":4310,"ival":4311,"Ġdevelop":4312,"])):":4313,"Ġbox":4314,"greg":4315,"ensemble":4316,"ERR":4317,"ĠĠĠĠĠĠĠĠĠĠĠĠĠĠĠĠĠĠĠĠĠĠĠĠĠĠĠĠĠĠĠĠĠĠ":4318,"Numbers":4319,"255":4320,"Ġstatement":4321,"Ġincluding":4322,"Ġcloth":4323,"Ġdivisor":4324,"55":4325,"CON":4326,"FT":4327,"ping":4328,"sage":4329,"Ġcls":4330,"Ġsav":4331,"anoi":4332,"ĠFound":4333,"Ġdecode":4334,"owel":4335,"rowser":4336,"ĠGET":4337,"Ġcollection":4338,"Ġmovies":4339,"Ġneeded":4340,"ĠInitial":4341,"dirname":4342,"Ġtokenize":4343,"Ġround":4344,"Child":4345,"DEF":4346,"################################################################":4347,"ĠArgs":4348,"dimensional":4349,"active":4350,"Ġargparse":4351,"Ġcalculator":4352,"NN":4353,"[['":4354,"mstrong":4355,"warning":4356,"ystem":4357,"Ġrect":4358,"ĠPost":4359,"ssue":4360,"Ġgreatest":4361,"Ġcompar":4362,"environ":4363,"DEL":4364,"package":4365,"google":4366,"ruit":4367,"ĠDecisionTreeClassifier":4368,"Distance":4369,"Ġindividual":4370,"(.*":4371,"Do":4372,"Print":4373,"gr":4374,"gy":4375,"kl":4376,"lug":4377,"pub":4378,"sid":4379,"Ġke":4380,"Ġview":4381,"orient":4382,"ragraph":4383,"Ġpas":4384,"Ġpie":4385,"Ġreq":4386,"Ġreviews":4387,"rove":4388,"mpt":4389,"cha":4390,"Ġ23":4391,"')]":4392,"Ġcons":4393,"ĠCSV":4394,"Ġchart":4395,"irth":4396,"ĠLanguage":4397,"prob":4398,"ĠHe":4399,"Response":4400,"svm":4401,"ÂłÂłÂłÂł":4402,"Ġcombination":4403,"Ġterm":4404,"Ġnormalize":4405,"Ġctx":4406,"Ġdesired":4407,"customers":4408,"ASE":4409,"Total":4410,"gpu":4411,"long":4412,"Ġfree":4413,"leg":4414,"Ġregex":4415,"Ġ##":4416,"Ġthird":4417,"icon":4418,"odb":4419,"Ġ%(":4420,"Ġcomponent":4421,"Ġobjective":4422,"Ġdistinct":4423,"difference":4424,"Ġspace":4425,"================================================================":4426,"ĠAND":4427,"Ġcustomers":4428,"Order":4429,"Ġengine":4430,"IM":4431,"Ro":4432,"cla":4433,"mul":4434,"ron":4435,"Ġge":4436,"Ġhttps":4437,"dered":4438,"Ġcube":4439,"Ġlcs":4440,"('--":4441,"Ġdefines":4442,"uble":4443,"imeter":4444,"series":4445,"ĠGo":4446,"Integer":4447,"clean":4448,"gene":4449,"ĠSVC":4450,"+\"":4451,"Sta":4452,"ground":4453,"pad":4454,"eries":4455,"Ġcli":4456,"Ġfill":4457,"Ġforecast":4458,"Ġrecomm":4459,"med":4460,"Ġdtype":4461,"Ġwon":4462,"Ġprinting":4463,"ĠNaive":4464,"alculator":4465,"Ġsetup":4466,"Ġkwargs":4467,"Ġheap":4468,"foo":4469,"Content":4470,"Ġheadlines":4471,"Ġ``":4472,"Ġgreat":4473,"Ġpartic":4474,"ABILITY":4475,"gnore":4476,"full":4477,"Exception":4478,"Ġallows":4479,"Ġappears":4480,"ĠTraverse":4481,"Ad":4482,"Py":4483,"Table":4484,"We":4485,"cnt":4486,"squares":4487,"Ġfour":4488,"Ġmenu":4489,"Ġcos":4490,"Ġconstruct":4491,"ĠCar":4492,"imer":4493,"parameters":4494,"Ġbegin":4495,"Ġmodified":4496,"required":4497,"sitive":4498,"triangle":4499,"ĠWIT":4500,"Ġdistances":4501,"ĠURLs":4502,"helper":4503,"Ġtransform":4504,"SSH":4505,"numerator":4506,"Ġmemory":4507,"ĠStandardScaler":4508,".\",":4509,"500":4510,"CRE":4511,"help":4512,"Ġicon":4513,"Ġrel":4514,"Ġrelease":4515,"utions":4516,"Ġbound":4517,"ords":4518,"iness":4519,"ĠĠĠĠĠĠĠĠĠĠĠĠĠĠĠĠĠĠĠĠĠĠĠĠĠĠĠĠĠĠĠĠĠĠĠ":4520,"matizer":4521,"ĠOpen":4522,"Ġadding":4523,"Start":4524,"Ġshape":4525,"Ġpages":4526,"predicted":4527,"Ġvalidation":4528,"Ġrepresenting":4529,"Ġmatching":4530,"Ġphrase":4531,"END":4532,"Ġagain":4533,"tuple":4534,"Ġconstrain":4535,"ivalent":4536,"Oper":4537,"Temp":4538,"sho":4539,"vader":4540,"Ġmn":4541,"Ġbar":4542,"male":4543,"izz":4544,"Ġangle":4545,"ĠFree":4546,"ĠCON":4547,"pay":4548,"ĠmaxLength":4549,"Ġmetadata":4550,"Ġvar":4551,"Ġ>>":4552,"Ġminutes":4553,"based":4554,"estim":4555,"episode":4556,"Ġyears":4557,"Matrix":4558,"ĠStack":4559,"tuples":4560,"Ġsuccessful":4561,"Ġknapsack":4562,"Ġjoin":4563,"PUT":4564,"classes":4565,"ili":4566,"lon":4567,"tre":4568,"Ġroman":4569,"Ġfix":4570,"meta":4571,"Ġbi":4572,"Ġlater":4573,"comple":4574,"Ġconcaten":4575,"ializer":4576,"ialog":4577,"Ġstored":4578,"Ġoptimal":4579,"ĠConnect":4580,"Ġprocessing":4581,"capacity":4582,"assertTrue":4583,"Ġoccurrence":4584,"Ġclusters":4585,"factorial":4586,"HOUT":4587,"Ġequivalent":4588,"limiter":4589,"blocks":4590,"Ġhours":4591,"aesar":4592,"={'":4593,"CI":4594,"USER":4595,"YZ":4596,"ef":4597,"evaluate":4598,"pot":4599,"vate":4600,"vari":4601,"variable":4602,"review":4603,"Ġcenter":4604,"Ġthese":4605,"tein":4606,"))]":4607,"(\"-":4608,"('%":4609,"ĠTHE":4610,"pool":4611,"question":4612,"ĠBinary":4613,"Ġminimize":4614,"compute":4615,"Ġlogger":4616,"divisible":4617,"arger":4618,"Ġlanguages":4619,"Ġconfiguration":4620,"Neighbors":4621,"Ġbottom":4622,"permutations":4623,"ĠSwap":4624,"ERROR":4625,"(?":4626,")//":4627,")*(":4628,"36":4629,"All":4630,"OS":4631,"Price":4632,"pin":4633,"rm":4634,"spy":4635,"Ġpunctuation":4636,"Ġinit":4637,"Ġrest":4638,"Ġeval":4639,"ilities":4640,"olve":4641,"ptime":4642,"quit":4643,"Ġ27":4644,"Ġcoordinates":4645,"Ġ45":4646,"Ġexpected":4647,"extract":4648,"Ġcols":4649,"Ġcomment":4650,"STM":4651,"Ġroll":4652,"ÂłÂłÂł":4653,"Param":4654,"Ġpackages":4655,"Ġhashlib":4656,"Ġdestination":4657,"Ġscipy":4658,"CE":4659,"CR":4660,"QU":4661,"push":4662,"Ġpublic":4663,"Ġfive":4664,"Ġsure":4665,"Ġstep":4666,"ĠTrans":4667,"Ġalong":4668,"ĠSub":4669,"Ġusage":4670,"viation":4671,"ĠEX":4672,"tegers":4673,"ĠWe":4674,"cls":4675,"Ġparsed":4676,"ĠKMeans":4677,"Process":4678,"Ġparts":4679,"ALL":4680,"ĠCompile":4681,"Ġthreading":4682,"riteria":4683,"CHA":4684,"Pooling":4685,"Ġcomprehension":4686,"Ġparticular":4687,"02":4688,":.":4689,"Fe":4690,"PORT":4691,"SM":4692,"Sname":4693,"SId":4694,"Title":4695,"Welcome":4696,"can":4697,"git":4698,"ghi":4699,"include":4700,"indices":4701,"itter":4702,"rot":4703,"ges":4704,"Ġmysql":4705,"Ġdates":4706,"ssian":4707,"Ġ\"\".":4708,"Ġgenerator":4709,"(\"/":4710,"ison":4711,"tool":4712,"Ġtech":4713,"mote":4714,"peri":4715,"reader":4716,"ĠRemove":4717,"Ġshuffle":4718,"Ġmessages":4719,"depend":4720,"docs":4721,"handler":4722,"Ġdistribution":4723,"records":4724,"click":4725,"Ġseparate":4726,"ĠNumber":4727,"ĠParameters":4728,"------------------------------------------------------------------------":4729,"rooms":4730,"ĠLinkedList":4731,"oriented":4732,")\\":4733,"28":4734,"66":4735,"=[\"":4736,"Average":4737,"CM":4738,"How":4739,"MO":4740,"Make":4741,"OL":4742,"OUR":4743,"Your":4744,"mm":4745,"wrapper":4746,"reet":4747,"itor":4748,"alth":4749,"threshold":4750,"Ġbl":4751,"Ġstatic":4752,"direct":4753,"ĠTABLE":4754,"ĠTEXT":4755,"Ġans":4756,"')[":4757,"irm":4758,"ĠBayes":4759,"Ġcollect":4760,"green":4761,"Ġmany":4762,"Ġvisual":4763,"Ġgroups":4764,"multip":4765,"Apple":4766,"Ġrespond":4767,"ĠFoundation":4768,"ĠWITHOUT":4769,",'":4770,"44":4771,"Cur":4772,"`,":4773,"imp":4774,"iou":4775,"pc":4776,"tab":4777,"install":4778,"details":4779,"Ġpix":4780,"liers":4781,"Ġtoday":4782,"Ġdot":4783,"loy":4784,"tocol":4785,"Ġdiag":4786,"ferences":4787,"Ġmatrices":4788,"ocab":4789,"Ġfahrenheit":4790,"submit":4791,"Ġroute":4792,"Ġextracts":4793,"Ġpredicted":4794,"ĠStart":4795,"Head":4796,"Ġquestions":4797,"Ġincreasing":4798,"abcdef":4799,"ĠBook":4800,"Ġreceived":4801,"delta":4802,"Â°Â°":4803,"And":4804,"Activ":4805,"BU":4806,"IG":4807,"\\'":4808,"];":4809,"]}":4810,"fect":4811,"iris":4812,"pivot":4813,"ucli":4814,"wn":4815,"Ð½":4816,"Ġast":4817,"atistics":4818,"ged":4819,"Ġetc":4820,"idity":4821,"ĠĠĠĠĠĠĠĠĠĠĠĠĠĠĠĠĠĠĠĠĠĠĠĠĠ":4822,"ases":4823,"policy":4824,"exec":4825,"encrypted":4826,"Ġuseful":4827,"Ġscreen":4828,"fail":4829,"dirs":4830,"Product":4831,"ynomial":4832,"rappe":4833,"Ġimages":4834,"factors":4835,"Substring":4836,"Ġchanges":4837,"Ġpublished":4838,"aeiou":4839,"Ġsmtplib":4840,"AM":4841,"Blob":4842,"IME":4843,"Palindrome":4844,"Two":4845,"URE":4846,"\\\\":4847,"dp":4848,"mt":4849,"paper":4850,"sender":4851,"sudo":4852,"}'.":4853,"~-":4854,"rev":4855,"regex":4856,"Ġable":4857,"Ġ'')":4858,"Ġthreshold":4859,"Ġconsecutive":4860,"Ġmaze":4861,"pare":4862,"Ġbeing":4863,"ĠMax":4864,"Ġrospy":4865,"Ġzero":4866,"Values":4867,"Ġimplied":4868,"DIR":4869,"Ġepisode":4870,"\"][":4871,"37":4872,"65":4873,":'":4874,"Area":4875,"DA":4876,"El":4877,"IF":4878,"Module":4879,"[^":4880,"bn":4881,"br":4882,"fun":4883,"ha":4884,"hot":4885,"mith":4886,"sa":4887,"ret":4888,"Ġturtle":4889,"Ġput":4890,"Ġinstru":4891,"umidity":4892,"alk":4893,"Ġdown":4894,"Ġarch":4895,"mask":4896,"ressed":4897,"etic":4898,"ithub":4899,"ĠFirst":4900,"Ġ35":4901,"Ġdesign":4902,"],[":4903,"Ġ<<":4904,"Ġ500":4905,"ached":4906,"require":4907,"Ġ{},":4908,"logger":4909,"asket":4910,"atterns":4911,"ometry":4912,"Ġpyramid":4913,"employee":4914,"images":4915,"Ġplain":4916,"Ġcalculating":4917,"Ġpeople":4918,"container":4919,"itespace":4920,"Ġshell":4921,"Optim":4922,"aled":4923,"zA":4924,"dean":4925,"race":4926,"Ġcalc":4927,"Ġnn":4928,"Ġ\"\")":4929,"listen":4930,"Ġlarger":4931,"ifies":4932,"isupper":4933,"quantity":4934,"counter":4935,"ĠSer":4936,"Ġ34":4937,"dicts":4938,"titles":4939,"Ġshift":4940,"ETE":4941,"ventory":4942,"ĠSearch":4943,"ORD":4944,"Ġpasswords":4945,"HOST":4946,"pairs":4947,"offset":4948,"Ġbuilt":4949,"Ġauthentic":4950,"Ġattrs":4951,"CREATE":4952,"uclidean":4953,"~-~-":4954,"Case":4955,"Map":4956,"Mult":4957,"aign":4958,"aura":4959,"bus":4960,"equ":4961,"frequencies":4962,"ov":4963,"}.":4964,"Ñģ":4965,"ended":4966,"Ġintent":4967,"Ġindic":4968,"alled":4969,"ĠPer":4970,"ively":4971,"iform":4972,"Ġcho":4973,"rency":4974,"Ġhref":4975,"Ġhouse":4976,"strptime":4977,"percent":4978,"ĠLabel":4979,"Ġsubarray":4980,"Dep":4981,"[:-":4982,"conditions":4983,"Ġpredicting":4984,"Ġlis":4985,"POSE":4986,"Ġinsertion":4987,"Ġwinner":4988,"Common":4989,"similarity":4990,"ĠMove":4991,"PU":4992,"TH":4993,"[(":4994,"bb":4995,"cut":4996,"ium":4997,"jkl":4998,"norm":4999,"rl":5000,"}\"":5001,"static":5002,"only":5003,"Ġcm":5004,"Ġcred":5005,"lab":5006,")).":5007,"vals":5008,"('.":5009,"isdigit":5010,"Ġseq":5011,"pec":5012,"Ġjumps":5013,"Ġvirtual":5014,"Repository":5015,"classify":5016,"Ġ400":5017,"Ġonline":5018,"andid":5019,"ifiers":5020,"outcome":5021,"foot":5022,"Conv":5023,"ickle":5024,"ĠXML":5025,"connector":5026,"Ġotherwise":5027,"Ġcommands":5028,"Mean":5029,"Ġmarks":5030,"LOCK":5031,"Ġregular":5032,"track":5033,"Ġcomplete":5034,"Compose":5035,"Ġalphabetical":5036,"123456":5037,"aussian":5038,"ĠStore":5039,"!\",":5040,")')":5041,"CESS":5042,"RU":5043,"Train":5044,"actions":5045,"blob":5046,"cra":5047,"duplicate":5048,"je":5049,"sure":5050,"xpath":5051,"Ġvi":5052,"Ġvideo":5053,"onal":5054,"Ġcriteria":5055,"Ġinv":5056,"Ġevalu":5057,"amel":5058,"Ġanalyze":5059,"Ġmeasure":5060,"ĠMongo":5061,"requires":5062,"mainloop":5063,"Ġfaster":5064,"places":5065,"mylist":5066,"ĠInsert":5067,"Ġurls":5068,"sprite":5069,"ĠYork":5070,"cause":5071,"Ġcombined":5072,"Ġstudents":5073,"Ġgoal":5074,"Ġsimulate":5075,"Ġdetermin":5076,"directory":5077,"DATA":5078,"Ġkeep":5079,"'m":5080,"></":5081,"EM":5082,"LU":5083,"ZE":5084,"global":5085,"pg":5086,"ssed":5087,"scissors":5088,"tcha":5089,"}:":5090,"}_":5091,"ĠWrite":5092,"Ġtre":5093,"Ġpadding":5094,"lex":5095,"Ġ'_":5096,"Ġblank":5097,"Ġsteps":5098,"cho":5099,"###":5100,"olute":5101,"etter":5102,"Ġchoices":5103,"Ġdelet":5104,"ints":5105,"dddd":5106,"Ġorg":5107,"ĠMat":5108,"training":5109,"timestamp":5110,"curity":5111,"Ġcombine":5112,"phan":5113,"maximum":5114,"Ġboolean":5115,"Ġtests":5116,"Ġcompany":5117,"Ġtimestamp":5118,"greater":5119,"Config":5120,"logy":5121,"2020":5122,"pages":5123,"ARY":5124,"Ġvectors":5125,"white":5126,"cale":5127,"licenses":5128,"Ġcrawler":5129,"87":5130,"blank":5131,"fc":5132,"gi":5133,"ices":5134,"lxml":5135,"nown":5136,"otes":5137,"vars":5138,"repe":5139,"Ġtab":5140,"steps":5141,"urlop":5142,"Ġ'+":5143,"Ġden":5144,"ĠPART":5145,"Ġwins":5146,"mainder":5147,"Ġcore":5148,"ĠST":5149,"ĠSci":5150,"abilities":5151,"Ġhalf":5152,"power":5153,"Ġmoves":5154,"Ġnested":5155,"Ġperforms":5156,"2021":5157,"Ġspecify":5158,"Ġrepresentation":5159,"swers":5160,"Ġcapacity":5161,"reversed":5162,"Ġcomputes":5163,"atically":5164,"ĠâĢĺ":5165,"videos":5166,"cards":5167,"Ġhistogram":5168,"ĠTODO":5169,"DELETE":5170,"Params":5171,"urlopen":5172,"(',":5173,"Be":5174,"From":5175,"NESS":5176,"VE":5177,"WAR":5178,"Web":5179,"bute":5180,"cup":5181,"ead":5182,"far":5183,"optimize":5184,"uuid":5185,"erci":5186,"Ġcel":5187,"Ġfalse":5188,"leted":5189,"rock":5190,"ĠPUR":5191,"ssign":5192,"Ġalpha":5193,"ĠCol":5194,"arry":5195,"tail":5196,"comment":5197,"ĠEng":5198,"Ġ70":5199,"ERCHA":5200,"ĠOutputs":5201,"Ġsched":5202,"Ġvarious":5203,"NTABILITY":5204,"ITNESS":5205,"ĠProcess":5206,"symb":5207,"volt":5208,"students":5209,"Ġnumerical":5210,"Ġcapitalize":5211,"success":5212,"abcdefghi":5213,"ĠPURPOSE":5214,"ERCHANTABILITY":5215,"=\",":5216,"Call":5217,"LM":5218,"QR":5219,"Tag":5220,"[]":5221,"font":5222,"gmail":5223,"network":5224,"oci":5225,"stats":5226,"hes":5227,"Ġflat":5228,"Ġreward":5229,"mpty":5230,"Ġdt":5231,"ĠPlot":5232,"channel":5233,"Ġlate":5234,"Ġlarge":5235,"usion":5236,"iso":5237,"course":5238,"ĠFITNESS":5239,"Ġconsole":5240,"appendChild":5241,"moves":5242,"settings":5243,"Ġwhose":5244,"Ġtax":5245,"addr":5246,"pher":5247,"Ġhex":5248,"Define":5249,"Ġneighbor":5250,"collection":5251,"Ġ})":5252,"creasing":5253,"Ġentries":5254,"Ġinterface":5255,"Resource":5256,"ĠĠĠĠĠĠĠĠĠĠĠĠĠĠĠĠĠĠĠĠĠĠĠĠĠĠĠĠ":5257,"ICUL":5258,"Ġincludes":5259,"Ġremoved":5260,"FILE":5261,"LOGGER":5262,"ĠPARTICUL":5263,"abcdefghijkl":5264,"ĠPARTICULAR":5265,"HI":5266,"PRO":5267,"XYZ":5268,"YOUR":5269,"cer":5270,"cart":5271,"fer":5272,"uv":5273,"writer":5274,"rank":5275,"ced":5276,"units":5277,"team":5278,"---":5279,"anfile":5280,"analyzer":5281,"Ġ[['":5282,"master":5283,"Ġsection":5284,"Ġsever":5285,"untime":5286,"ĠSend":5287,"crimin":5288,"ĠDis":5289,"prev":5290,"ibility":5291,"ĠMin":5292,"ĠMERCHANTABILITY":5293,"oku":5294,"myList":5295,"Ġscal":5296,"tokenizer":5297,"Entry":5298,"Ġ//=":5299,"packages":5300,"qrst":5301,"region":5302,"Ġsamples":5303,"Ġobtain":5304,"Ġbackend":5305,"Ġadded":5306,"engine":5307,"mnop":5308,"wxyz":5309,"NeighborsClassifier":5310,"Group":5311,"PA":5312,"TO":5313,"`.":5314,"cion":5315,"equal":5316,"jor":5317,"just":5318,"lu":5319,"pan":5320,"ttp":5321,"uded":5322,"ways":5323,"Ġab":5324,"Ġfig":5325,"Ġmapping":5326,"Ġest":5327,"lour":5328,"answer":5329,"maz":5330,"ĠTw":5331,"ĠFile":5332,"Ġjust":5333,"ĠAES":5334,"Reader":5335,"shtein":5336,"Ġapply":5337,"grees":5338,"eam":5339,"Ġtrace":5340,"ynam":5341,"Ġcontrol":5342,"zero":5343,"Book":5344,"Ġautomatically":5345,"vmfs":5346,"documents":5347,"ĠTextBlob":5348,"Ġsymbols":5349,"capitalize":5350,"Ġrecommend":5351,"uvwxyz":5352,"qrstuvwxyz":5353,")\"":5354,"Tk":5355,"bubble":5356,"cing":5357,"gon":5358,"ks":5359,"vin":5360,"inst":5361,"Ġrem":5362,"Ġrecogn":5363,"Ġsite":5364,"than":5365,"lier":5366,"lies":5367,"Ġele":5368,"uniform":5369,"animal":5370,"ividual":5371,"();":5372,"('{":5373,"term":5374,"ĠSmith":5375,"abb":5376,"ĠĠĠĠĠĠĠĠĠĠĠĠĠĠĠĠĠĠĠĠĠĠ":5377,"ĠGaussian":5378,"Ġsubset":5379,"Ġadds":5380,"udoku":5381,"scatter":5382,"responses":5383,"lative":5384,"ĠKNeighborsClassifier":5385,"Programming":5386,"chemy":5387,"Ġformatted":5388,"Ġupdated":5389,"Ġdirection":5390,"framework":5391,"tfidf":5392,"Ġimprove":5393,"ULT":5394,"seconds":5395,"Alchemy":5396,"Returns":5397,"Ġsuccessfully":5398,"12345678":5399,"Ġlatest":5400,"abcdefghijklmnop":5401,"\"\\":5402,"=?":5403,"Dropout":5404,"Net":5405,"RS":5406,"Sh":5407,"css":5408,"duration":5409,"eff":5410,"fill":5411,"hy":5412,"mk":5413,"nb":5414,"nltk":5415,"sq":5416,"Ñĥ":5417,"integers":5418,"ĠĠĠĠĠĠĠĠĠĠĠĠĠĠĊ":5419,"resp":5420,"cope":5421,"etri":5422,"tern":5423,"ĠDi":5424,"ĠGUI":5425,"Cont":5426,"Ġshutil":5427,"PIO":5428,"ports":5429,"Ġtokenizer":5430,"'}).":5431,"interface":5432,"Ġcorpus":5433,"Ġpostfix":5434,"('/')":5435,"Ġinstead":5436,"Elements":5437,"Ident":5438,"Ġunderstand":5439,"Ġalphabetically":5440,"ANG":5441,"ĠSQLAlchemy":5442,"ĠPoint":5443,"Ġgenerating":5444,"abcdefghijklmnopqrstuvwxyz":5445,",))":5446,"=_":5447,"Aut":5448,"Auth":5449,"Div":5450,"Machine":5451,"aded":5452,"bind":5453,"circle":5454,"ker":5455,"ront":5456,"ratio":5457,"tl":5458,"xy":5459,"Ð»":5460,"interest":5461,"sep":5462,"Ġpip":5463,"alt":5464,"Ġsales":5465,"ueue":5466,"Ġbit":5467,"ĠTime":5468,"application":5469,"ĠCO":5470,"ĠIF":5471,"ĠIP":5472,"Ġsums":5473,"profile":5474,"inition":5475,"Ġcolors":5476,"Ġsubsequence":5477,"Ġ64":5478,"Dec":5479,"ĠWord":5480,"Ġruns":5481,"dific":5482,"hosts":5483,"Ġprovides":5484,"special":5485,"backs":5486,"Ġmarkdown":5487,"Ġlowest":5488,"Ġsides":5489,"ĠDataFrame":5490,"stopwords":5491,"Ġabsolute":5492,"ĠMySQL":5493,"distribut":5494,"estimators":5495,"Depth":5496,"Ġseveral":5497,"/(":5498,"06":5499,">.":5500,"Draw":5501,"FA":5502,"IES":5503,"RES":5504,"UV":5505,"calc":5506,"github":5507,"nique":5508,"null":5509,"wt":5510,"}}":5511,"ÑĢ":5512,"Ġlayers":5513,"inp":5514,"stream":5515,"Ġpuzzle":5516,"medi":5517,"unsorted":5518,"Ġbus":5519,"digest":5520,"ĠisPrime":5521,"ota":5522,"quick":5523,"tours":5524,"ĠSh":5525,"Ġdeleted":5526,"pand":5527,"cription":5528,"Ġwhat":5529,"ponent":5530,"summary":5531,"ĠET":5532,"Ġscale":5533,"Ġscaler":5534,"scaled":5535,"ighbo":5536,"cursive":5537,"latin":5538,"latform":5539,"intersection":5540,"configure":5541,"ĉĉĉĉĉĉ":5542,"datasets":5543,"lisher":5544,"Password":5545,"Negative":5546,"properties":5547,"marks":5548,"ranch":5549,"Ġstdout":5550,"support":5551,"Level":5552,"Ġdependencies":5553,"occurrences":5554,"ABCDEF":5555,"GB":5556,"Hi":5557,"LS":5558,"NO":5559,"PS":5560,"VIC":5561,"Variable":5562,"dk":5563,"ev":5564,"pipeline":5565,"writ":5566,"orry":5567,"eno":5568,"ĠĠĠĠĠĠĠĊ":5569,"Ġinvert":5570,"Ġredistri":5571,"Ġrank":5572,"Ġcoins":5573,"apped":5574,"ircum":5575,"plat":5576,"ĠLCS":5577,"times":5578,"mongo":5579,"Ġbytes":5580,"ĠUS":5581,"Ġfact":5582,"family":5583,"Ġtables":5584,"refix":5585,"astype":5586,"CTION":5587,"Ġpartition":5588,"Ġrepresents":5589,"ĠĠĠĠĠĠĠĠĠĠĠĠĠĠĠĠĠĠĠĠĠĠĠĠĠĠĠĠĠĠ":5590,"ACK":5591,"umeric":5592,"Ġremote":5593,"multiply":5594,"control":5595,"lapsed":5596,"auto":5597,"Ġpiece":5598,"phanumeric":5599,"Ġredistribute":5600,"ircumference":5601,"35":5602,"IRepository":5603,"LIC":5604,"Sto":5605,"folder":5606,"holder":5607,"hidden":5608,"ima":5609,"pdf":5610,"tion":5611,"ticket":5612,"used":5613,"}]":5614,"Ġve":5615,"ĠÂł":5616,"remote":5617,"era":5618,"Ġpk":5619,"Ġpat":5620,"Ġpurchase":5621,"Ġcentro":5622,"Ġcnt":5623,"Ġsid":5624,"Ġsources":5625,"Ġmask":5626,"Ġ\"*":5627,"Ġstyle":5628,"anager":5629,"Ġlon":5630,"diag":5631,"terms":5632,"cipher":5633,"classification":5634,"Ġchecking":5635,"neutral":5636,"dbus":5637,"Ġapplic":5638,"Ġtemplate":5639,"amma":5640,"Session":5641,"entials":5642,"ĠĠĠĠĠĠĠĠĠĠĠĠĠĠĠĠĠĠĠĠĠĠĠĠĠĠĠĠĠ":5643,"genre":5644,"Ġcalendar":5645,"Ġspaces":5646,"ĠCompare":5647,"trace":5648,"roller":5649,"Ġexecution":5650,"RequestHandler":5651,"ĠAppend":5652,"merged":5653,"Ġindent":5654,"Ġcomplexity":5655,"ĠWARRANTY":5656,"Ġcosine":5657,"Ġcells":5658,"Jane":5659,"Lib":5660,"NOP":5661,"Odd":5662,"bird":5663,"dc":5664,"flag":5665,"lation":5666,"pix":5667,"tick":5668,"regressor":5669,"hema":5670,"Ġcache":5671,"Ġred":5672,"Ġreference":5673,"Ġrelev":5674,"defined":5675,"ĠPO":5676,"Ġwait":5677,"Ġstri":5678,"vex":5679,"Ġvowel":5680,"serv":5681,"Read":5682,"Ġbecause":5683,"Ġcomma":5684,"Instance":5685,"relation":5686,"unctuations":5687,"Ġassoci":5688,"Ġpeek":5689,"Words":5690,"Valid":5691,"Ġvolume":5692,"Stack":5693,"Ġtechnique":5694,"ercise":5695,"ABCDEFG":5696,"26":5697,"JK":5698,"eq":5699,"fz":5700,"gz":5701,"Ġut":5702,"stor":5703,"Ġfn":5704,"rincip":5705,"media":5706,"lio":5707,"Ġreturned":5708,"Ġwar":5709,"adr":5710,"ifest":5711,"isalpha":5712,"individual":5713,"imate":5714,"keyword":5715,"articles":5716,"Ġwho":5717,"hours":5718,"Ġcomments":5719,"Ġaddr":5720,"Ġ65":5721,"minutes":5722,"folio":5723,"charge":5724,"lets":5725,"Strings":5726,"Ġimplementation":5727,"closest":5728,"clear":5729,"speech":5730,"Ġevents":5731,"Ġlongitude":5732,"parts":5733,"Ġexecut":5734,"Ġcards":5735,"decimal":5736,"Predict":5737,"Ġrepeat":5738,"Ġsymbol":5739,"blue":5740,"Ġhope":5741,"Ġcoefficients":5742,"Ġstoring":5743,"Ġsmaller":5744,"odbye":5745,")'":5746,")',":5747,"27":5748,"98":5749,"Alice":5750,"Dis":5751,"FLOGGER":5752,"Task":5753,"WXYZ":5754,"bra":5755,"dm":5756,"dom":5757,"future":5758,"gres":5759,"mse":5760,"she":5761,"ula":5762,"Ð²":5763,"Ġpin":5764,"Ġignore":5765,"Ġinvalid":5766,"Ġmig":5767,"Ġds":5768,"oman":5769,"Ġprompt":5770,"usive":5771,"updf":5772,"ĠFin":5773,"Ġchannel":5774,"Ġdelimiter":5775,"Ġpay":5776,"Ġparagraph":5777,"Ġmeta":5778,"Ġmetric":5779,"profit":5780,"Ġweek":5781,"country":5782,"Ġkernel":5783,"Ġsublist":5784,"Ġfamily":5785,"STUV":5786,"Ġresponses":5787,"ATION":5788,"Ġdouble":5789,"Sequence":5790,"Argument":5791,"ampaign":5792,"direction":5793,"Ġcrawl":5794,"Ġactual":5795,"original":5796,"LAY":5797,"QRSTUV":5798,"HIJK":5799,"NOPQRSTUV":5800,"ABCDEFGHIJK":5801,"NOPQRSTUVWXYZ":5802,"ABCDEFGHIJKLM":5803,"/',":5804,"Bob":5805,"Cvmfs":5806,"Game":5807,"Iter":5808,"LP":5809,"Lem":5810,"MS":5811,"Ver":5812,"Yes":5813,"wb":5814,"}\\":5815,"Ġë":5816,"Ġcat":5817,"cture":5818,"ĠPlayer":5819,"usage":5820,"ĠTh":5821,"ĠThen":5822,"ĠFetch":5823,"Ġmaster":5824,"Ġhold":5825,"])**":5826,"ĠDes":5827,"account":5828,"exception":5829,"experiment":5830,"Ġpred":5831,"Ġlang":5832,"john":5833,"Ġneighbors":5834,"Ġoutcome":5835,"Status":5836,"Ġpositions":5837,"running":5838,"Ġscraping":5839,"Token":5840,"Ġhandler":5841,"missing":5842,"Ġregister":5843,"ieve":5844,"Ġfoot":5845,"Color":5846,"Ġthreads":5847,"Ġpady":5848,"ranty":5849,"Ġaccepts":5850,"********":5851,"Query":5852,"Ġbeginning":5853,"Ġrelated":5854,"criminant":5855,"\"+":5856,".'''":5857,"84":5858,"95":5859,"Car":5860,"Even":5861,"Ge":5862,"LL":5863,"Option":5864,"Tango":5865,"aw":5866,"five":5867,"gment":5868,"rb":5869,"uous":5870,"zone":5871,"ince":5872,"incl":5873,"separ":5874,"Ġduration":5875,"ceptions":5876,"Ġwell":5877,"apon":5878,"Ġthose":5879,"elper":5880,"ĠTemp":5881,"coins":5882,"Ġresource":5883,"Ġ{:.":5884,"Ġhome":5885,"alling":5886,"acc":5887,"Ġexception":5888,"proces":5889,"hour":5890,"hook":5891,"hoose":5892,"ĠObject":5893,"Ġtimeout":5894,"ĠUsage":5895,"subset":5896,"Ġheadline":5897,"Counter":5898,"ĠSelect":5899,"Produce":5900,"Ġentered":5901,"Ġ123":5902,"uffix":5903,"ĠĠĠĠĠĠĠĠĠĠĠĠĠĠĠĠĠĠĠĠĠĠĠĠĠĠ":5904,"Positive":5905,"Ġoptional":5906,"Ġcapitalized":5907,"Address":5908,"guess":5909,"INTER":5910,"wikipedia":5911,"ĠMongoDB":5912,"platform":5913,"Ġwarranty":5914,"adratic":5915,"ABCDEFGHIJKLMNOPQRSTUVWXYZ":5916,")\")":5917,"FO":5918,"Ma":5919,"WS":5920,"bi":5921,"birth":5922,"done":5923,"hold":5924,"pat":5925,"rd":5926,"rg":5927,"sr":5928,"sers":5929,"sDict":5930,"tv":5931,"vider":5932,"Ġviews":5933,"stors":5934,"deps":5935,"hemat":5936,"Ġpig":5937,"lear":5938,"Ġremainder":5939,"Ġsge":5940,"Ġ\"#":5941,"resource":5942,"Ġsecret":5943,"ĠSum":5944,"ĠCreating":5945,"ĠAll":5946,"intent":5947,"serve":5948,"ĠDE":5949,"Ġpool":5950,"programming":5951,"ĠMA":5952,"Ġlove":5953,"parsed":5954,"colors":5955,"fast":5956,"Ġtemperatures":5957,"Ġdisk":5958,"10000":5959,"spring":5960,"9999":5961,"ĠTraining":5962,"Ġreplacement":5963,"Ġremoving":5964,"3333":5965,"Ġincrement":5966,"Transform":5967,"xxxxxxxx":5968,"pipfile":5969,"SIZE":5970,"Ġprocessed":5971,"Ġsaved":5972,"Ġpassed":5973,"ynamic":5974,"Ġassociated":5975,"%(":5976,"31":5977,"86":5978,"={}":5979,"Assert":5980,"Banana":5981,"ECT":5982,"Generator":5983,"On":5984,"Ori":5985,"Wh":5986,"cfg":5987,"fib":5988,"gcd":5989,"oom":5990,"slot":5991,"simple":5992,"tw":5993,"ìĿ":5994,"Ġ],":5995,"inx":5996,"Ġflags":5997,"Ġredirect":5998,"Ġnull":5999,"rod":6000,"Ġmis":6001,"Ġbg":6002,"Ġbag":6003,"omal":6004,"()):":6005,"(\"{}":6006,"verter":6007,"etings":6008,"Ġmail":6009,"\");":6010,"ĠStr":6011,"Ġ31":6012,"Ġ36":6013,"Ġresulting":6014,"ĠImage":6015,"ĠItem":6016,"ĠNot":6017,"Ġmember":6018,"Reg":6019,"exc":6020,"abled":6021,"ĠOS":6022,"ĠOn":6023,"sonants":6024,"Ġrules":6025,"encrypt":6026,"Ġaddresses":6027,"dam":6028,"\"]:":6029,"ensure":6030,"Ġcannot":6031,"ĠĠĠĠĠĠĠĠĠĠĠĠĠĠĠĠĠĠĠĠĠĠĠĠĠĠĠĠĠĠĠĠĠĠĠĠĠĠĠĠ":6032,"translate":6033,"Ġreader":6034,"dians":6035,"maps":6036,"inalg":6037,"Ġgenre":6038,"ĠImportError":6039,"endswith":6040,"Ġprimary":6041,"Ġagent":6042,"Ġwriting":6043,"PTION":6044,"permutation":6045,"cloud":6046,"variables":6047,"#$":6048,":]:":6049,">')":6050,"Cap":6051,"Mi":6052,"Page":6053,"Ta":6054,"TER":6055,"WN":6056,"fruit":6057,"gent":6058,"hone":6059,"lates":6060,"linalg":6061,"sync":6062,"yy":6063,"Ġ=\",":6064,"Ġ'#":6065,"Ġgtk":6066,"ilar":6067,"(\"*":6068,"Ġsear":6069,"Ġsecs":6070,"Ġconstructor":6071,"Ġdecor":6072,"isting":6073,"istration":6074,"cribe":6075,"Ġclassified":6076,"ĠLI":6077,"ĠLib":6078,"ĠLast":6079,"press":6080,"101":6081,"Ġskip":6082,"ĠWeb":6083,"Ġqueries":6084,"Ġfolder":6085,"Ġperfect":6086,"Ġ_(\"":6087,"Ġserial":6088,"Ġsolutions":6089,"Ġgrad":6090,"without":6091,"gnitude":6092,"Ġencryption":6093,"genes":6094,"topic":6095,"Ġtermin":6096,"Ġchildren":6097,"Ġsomething":6098,"Subject":6099,"Ġpadx":6100,"Command":6101,"history":6102,"ĠLearning":6103,"Ġrectangle":6104,"SMTP":6105,"aurant":6106,"rincipal":6107,"+',":6108,"-]+":6109,":\\":6110,">=":6111,"Email":6112,"Is":6113,"Manager":6114,"Prefix":6115,"given":6116,"knn":6117,"where":6118,"ygon":6119,"Ġvert":6120,"Ġapt":6121,"Ġpow":6122,"Ġcandid":6123,"leet":6124,"ali":6125,"Ġsudo":6126,"live":6127,"gether":6128,"Ġdialog":6129,"ride":6130,"ellow":6131,"termin":6132,"ascal":6133,"Ġcould":6134,"']))":6135,"Ġaltern":6136,"ectangle":6137,"ĠAt":6138,"Ġmemo":6139,"tach":6140,"pygame":6141,"services":6142,"Ġexclude":6143,"Ġtaken":6144,"ĠEmail":6145,"library":6146,"acket":6147,"ĠHttp":6148,"Ġunicode":6149,"ayer":6150,"component":6151,"ĠConfig":6152,"pped":6153,"Ġparty":6154,"ĠArray":6155,"ĠArmstrong":6156,"website":6157,"Ġnumeric":6158,"Ġclustering":6159,"Ġ\"_\"":6160,"jscomp":6161,"Ġrotate":6162,"Ġconstraints":6163,"dependent":6164,"mkdir":6165,"ighbour":6166,"ĠFinally":6167,"150":6168,"300":6169,"70":6170,"77":6171,"85":6172,"Loc":6173,"Ob":6174,"Su":6175,"Tra":6176,"Update":6177,"WORD":6178,"YY":6179,"suffix":6180,"yms":6181,"ĠčĊ":6182,"Ġlayout":6183,"rexi":6184,"Ġticket":6185,"orn":6186,"Ġissue":6187,"lip":6188,"Ġ'{}":6189,"Ġguid":6190,"Ġ[{'":6191,"choices":6192,"edu":6193,"ational":6194,"Ġconsumer":6195,"Ġask":6196,"ĠSave":6197,"ĠSimple":6198,"Ġ33":6199,"keywords":6200,"]).":6201,"ĠAge":6202,"expected":6203,"prop":6204,"Ġdice":6205,"Ġ101":6206,"Ġcommit":6207,"shift":6208,"gorithms":6209,"Deg":6210,"ĠReplace":6211,"neg":6212,"\"]))":6213,"fox":6214,"Ġ97":6215,"ĠInter":6216,"condition":6217,"Ġextra":6218,"ĠĠĠĠĠĠĠĠĠĠĠĠĠĠĠĠĠĠĠĠĠĠĠĠĠĠĠĠĠĠĠĠĠĠĠĠĠĠĠĠĠĠĠ":6219,"ĠJohn":6220,"Ġpredicts":6221,"ĠDefault":6222,"Classify":6223,"validation":6224,"employees":6225,"spect":6226,"Ġinstalled":6227,"ABASE":6228,"Ġ(\"%":6229,"Ġgenetic":6230,"Computer":6231,"Ġremoves":6232,"Failed":6233,"Ġdoesn":6234,"Ġdelta":6235,"ratings":6236,"Ġsignal":6237,"closure":6238,"Ġunittest":6239,"Ġhelper":6240,"Ġcomparison":6241,"Ġclick":6242,"ĠPerform":6243,"ĠTwitter":6244,":')":6245,"BO":6246,"Bu":6247,"Bar":6248,"BLOCK":6249,"CV":6250,"Empty":6251,"Fine":6252,"MB":6253,"Menu":6254,"Run":6255,"Score":6256,"[\\":6257,"_)":6258,"ara":6259,"black":6260,"ear":6261,"jac":6262,"llist":6263,"px":6264,"sib":6265,"tls":6266,"uro":6267,"Ġ--------":6268,"eriv":6269,"atype":6270,"Ġ=>":6271,"season":6272,"detect":6273,"raise":6274,"Ġfur":6275,"roc":6276,"Ġproduce":6277,"ado":6278,"iler":6279,"(\",":6280,"ĠTri":6281,"cos":6282,"apply":6283,"Ġchain":6284,"Ġdeviation":6285,"Ġpaint":6286,"pointer":6287,"ĠNo":6288,"ĠNew":6289,"ĠNetwork":6290,"Ġsummar":6291,"Req":6292,"Ġ42":6293,"mplex":6294,"week":6295,"ignKey":6296,"phinx":6297,"sha":6298,"learning":6299,"ĠReverse":6300,"subarray":6301,"substrings":6302,"scaler":6303,"Ġspecies":6304,"Encoder":6305,"aka":6306,"ĠPrinting":6307,"refs":6308,"Ġsolving":6309,"Ġemployees":6310,"divis":6311,"Section":6312,"Change":6313,"Ġpasswd":6314,"Ġinterpre":6315,"note":6316,"Ġmarker":6317,"Ġcomputing":6318,"Ġiteration":6319,"Ġguessed":6320,"Ġlonger":6321,"Ġchanged":6322,"Ġincluded":6323,"-------":6324,"origin":6325,"ISTS":6326,"UMER":6327,"Ġprocesses":6328,"Ġsyntax":6329,"ĠAlgorithm":6330,"CII":6331,"ĠEXISTS":6332,"Ġchoose":6333,"VICE":6334,".\\":6335,"Embedding":6336,"OG":6337,"Vol":6338,"blog":6339,"fl":6340,"flatten":6341,"highest":6342,"iate":6343,"sales":6344,"ture":6345,"vocab":6346,"Ð¼":6347,"Ġ~":6348,"recursive":6349,"ernal":6350,"orch":6351,"seed":6352,"Ġcities":6353,"Ġsqrt":6354,"uring":6355,"Ġ':":6356,"Ġev":6357,"Ġ\"{":6358,"Ġforward":6359,"analysis":6360,"Ġlr":6361,"iles":6362,"ĠFe":6363,"toarray":6364,"ĠClose":6365,"001":6366,"ĠApi":6367,"modified":6368,"ĠGIRepository":6369,"############":6370,"Ġtexts":6371,"Ġmathemat":6372,"Ġbool":6373,"lengths":6374,"Ġnearest":6375,"Ġspeech":6376,"Ġsearching":6377,"ĠVariable":6378,"Ġvariant":6379,"alindrom":6380,"Program":6381,"Ġpymongo":6382,"Ġcallback":6383,"Ġdefaultdict":6384,"Ġtopic":6385,"################################################":6386,"atcher":6387,"Ġregion":6388,"Ġblocks":6389,"HTML":6390,"Ġproperty":6391,"\\.\\":6392,"Ġlatitude":6393,"ikipedia":6394,"Ġsupported":6395,"XXXX":6396,"Ġmutation":6397,"HTTPRequestHandler":6398,"legend":6399,"Ġcomponents":6400,"shop":6401,"CRET":6402,"\"][\"":6403,"etrie":6404,"Ġrelevant":6405,"120":6406,"IV":6407,"LSTM":6408,"RP":6409,"SP":6410,"Top":6411,"]{":6412,"_%":6413,"eval":6414,"fd":6415,"ham":6416,"sn":6417,"some":6418,"tar":6419,"uide":6420,"walk":6421,"{\"":6422,"ä¸":6423,"Ġlicense":6424,"integer":6425,"Ġten":6426,"stract":6427,"encoding":6428,"Ġplatform":6429,"Ġcre":6430,"Ġrelative":6431,"Ġsig":6432,"metric":6433,"Ġtodo":6434,"ĠPop":6435,"ĠPrice":6436,"ssb":6437,"lang":6438,"Ġgit":6439,"Ġ[('":6440,"Ġ(%":6441,"ilter":6442,"ished":6443,"Ġmaking":6444,"today":6445,"Ġdegrees":6446,"isted":6447,"ĠDropout":6448,"Ġexperiment":6449,"ĠfindMax":6450,"ĠMachine":6451,"Ġsubmit":6452,"feat":6453,"1024":6454,"Device":6455,"Ġquality":6456,"Ġoutliers":6457,"Ġenamel":6458,"company":6459,"messages":6460,"Ġgreeting":6461,"phabets":6462,"avai":6463,"Example":6464,"00000000":6465,"MaxPooling":6466,"distances":6467,"Ġadmin":6468,"Ġneeds":6469,"Height":6470,"Factor":6471,"Ġrecursion":6472,"COL":6473,"Unit":6474,"smtp":6475,"Thread":6476,"Ġactive":6477,"ĠTokenize":6478,"Ġadditional":6479,"Ġalign":6480,"Activity":6481,"Ġdenominator":6482,"INTERF":6483,"#$%":6484,"alindromic":6485,"<!":6486,"?\",":6487,"Close":6488,"DS":6489,"Duplicates":6490,"Fr":6491,"Flatten":6492,"LD":6493,"Row":6494,"Show":6495,"System":6496,"don":6497,"dating":6498,"nc":6499,"vdi":6500,"Ġsa":6501,"urses":6502,"like":6503,"Ġtoo":6504,"cel":6505,"loor":6506,"unicode":6507,"Ġstar":6508,"Ġstream":6509,"Ġprofile":6510,"olution":6511,"reser":6512,"etc":6513,"ĠFlatten":6514,"Ġalgorithms":6515,"ĠCl":6516,"Ġdevices":6517,"ĠAc":6518,"questions":6519,"=====":6520,"Ġwhitespace":6521,"Ġgetattr":6522,"ctories":6523,"oreignKey":6524,"dates":6525,"phrase":6526,"Ġendpoints":6527,"formatted":6528,"Ġface":6529,"Ġfailed":6530,"ĠHello":6531,"Context":6532,"[:]":6533,"avig":6534,"Ġurlparse":6535,"Ġvariance":6536,"errors":6537,"grades":6538,"Ġlogic":6539,"Ġgrades":6540,"packet":6541,"middle":6542,"MENT":6543,"Ġsquared":6544,"Needed":6545,"opts":6546,"Translate":6547,"Ġvolt":6548,"ĠTokenizer":6549,"Ġhello":6550,"Ġconcatenate":6551,"Ġschedule":6552,"difications":6553,"written":6554,"Ġcentroids":6555,"Predicted":6556,"#------------------------------------------------------------------------":6557,"=',":6558,"Bot":6559,"Categor":6560,"ENT":6561,"EGER":6562,"Host":6563,"One":6564,"Open":6565,"OUT":6566,"Sp":6567,"Sign":6568,"Simple":6569,"SION":6570,"Up":6571,"Version":6572,"between":6573,"frappe":6574,"gree":6575,"pitch":6576,"vels":6577,"reset":6578,"ste":6579,"orp":6580,"orse":6581,"Ġiris":6582,"Ġinside":6583,"Ġrepo":6584,"Ġrefs":6585,"mps":6586,"Ġeas":6587,"Ġ\":":6588,"Ġstatistics":6589,"ann":6590,"chor":6591,"('{}":6592,"isMessage":6593,"Ġance":6594,"Ġdefinition":6595,"Ġconverted":6596,"ĠSho":6597,"Ġteam":6598,"ĠĠĠĠĠĠĠĠĠĠĠĠĠĠĠĠĠĠĠĠĠĠĠĠĠĠĠĠĠĠĠĠĠĠĠĠĠĠĠ":6599,"pache":6600,"ĠACTION":6601,"Record":6602,"Regressor":6603,"Ġlem":6604,"Ġleap":6605,"ips":6606,"ĠMerge":6607,"ĠOr":6608,"Ġ:\",":6609,"mong":6610,"Ġcompile":6611,"Default":6612,"ĠRequest":6613,"Ġshopping":6614,"charset":6615,"Ġcontainer":6616,"Ġstarts":6617,"amera":6618,"codes":6619,"ĠVersion":6620,"Ġroom":6621,"aster":6622,"argmax":6623,"what":6624,"validate":6625,"ENSE":6626,"solve":6627,"ĠImporting":6628,"Ġciphertext":6629,"Account":6630,"Ġnormalized":6631,"Ġincrease":6632,"anagrams":6633,"umped":6634,"abspath":6635,"hexdigest":6636,"Ġhyper":6637,"Ġanimals":6638,"operator":6639,"ĠWARRANTIES":6640,"Ġdimensions":6641,"ĠInitializing":6642,"clade":6643,"Multip":6644,"Ġdeleting":6645,"ĠMatrix":6646,"abbix":6647,"123456789":6648,"omalies":6649,"isMessageNeeded":6650,"(\\":6651,"29":6652,"34":6653,"400":6654,"=\\\"":6655,"Grid":6656,"Link":6657,"UID":6658,"XML":6659,"[@":6660,"]-":6661,"]',":6662,"cred":6663,"kernel":6664,"rem":6665,"hemy":6666,"rases":6667,"Ġpur":6668,"Ġcb":6669,"Ġfg":6670,"Ġinverted":6671,"arsh":6672,"Ġsuggest":6673,"Ġwidget":6674,"unted":6675,"Ġbro":6676,"tel":6677,"answers":6678,"Ġgl":6679,"edge":6680,"ica":6681,"Ġascii":6682,"ĠCustomer":6683,"Ġhidden":6684,"plus":6685,"matize":6686,"alchemy":6687,"ryption":6688,"ĠButton":6689,"ĠBubble":6690,"Ġcountry":6691,"Ġpreprocess":6692,"initialize":6693,"ĠWait":6694,"mbers":6695,"Ġ75":6696,"Ġpdf":6697,"udget":6698,"Ġ/=":6699,"ĠInc":6700,"compare":6701,"Ġhasattr":6702,"Proper":6703,"âĢĺ":6704,"related":6705,"ĠquickSort":6706,"methods":6707,"Ġverify":6708,"Point":6709,"ruits":6710,"Results":6711,"Ġorigin":6712,"Box":6713,"changed":6714,"sqlite":6715,"LIB":6716,"Ġdivisors":6717,"modules":6718,"DATABASE":6719,"aaaa":6720,"Ġmnist":6721,"Ġauthentication":6722,"WARE":6723,"ĠEnglish":6724,"NetLem":6725,"sheet":6726,"NetLemmatizer":6727,"';":6728,"->":6729,"?\\":6730,"Cost":6731,"CCESS":6732,"GCD":6733,"Imp":6734,"Longest":6735,"License":6736,"Linear":6737,"NS":6738,"Orange":6739,"Ptr":6740,"TIME":6741,"Url":6742,"YPE":6743,"air":6744,"purchase":6745,"udio":6746,"xs":6747,"Ġensure":6748,"Ġtr":6749,"Ġair":6750,"Ġpul":6751,"Ġclear":6752,"met":6753,"ateway":6754,"ategy":6755,"ĠPDF":6756,"listdir":6757,"Ġbed":6758,"Ġlcm":6759,"Ġ(?,":6760,"iff":6761,"ĠType":6762,"ĠTake":6763,"islower":6764,"isinstance":6765,"coords":6766,"Ġanalyzer":6767,"htag":6768,"Ġreser":6769,"energy":6770,"ĠSU":6771,"ĠCaesar":6772,"contours":6773,"Ġmaxlen":6774,"perimeter":6775,"======":6776,"ddit":6777,"Ġtextblob":6778,"Ġratio":6779,"Ġwebdriver":6780,"Ġbyte":6781,"ĠReg":6782,"Ġquadratic":6783,"Ġfail":6784,"Ġperi":6785,"faces":6786,"Ġroots":6787,"agent":6788,"outputs":6789,"Ġmultiples":6790,"ROUP":6791,"Args":6792,"gnu":6793,"organ":6794,"Ġpalindromes":6795,"Ġcases":6796,"Maximum":6797,"Ġdescent":6798,"versal":6799,"ĠASCII":6800,"Ġrepeated":6801,"cipient":6802,"visited":6803,"Load":6804,"unittest":6805,"Ġconfusion":6806,"Format":6807,"JavaScript":6808,"ĠGoogle":6809,"payload":6810,"perience":6811,"equation":6812,"Ġorgan":6813,"ĠGaussianNB":6814,"=_(\"":6815,"ĠPOST":6816,"jacent":6817,"akaReq":6818,"-=":6819,"Binary":6820,"FS":6821,"First":6822,"FOR":6823,"ForeignKey":6824,"JSON":6825,"Mark":6826,"SL":6827,"arange":6828,"crypt":6829,"dos":6830,"four":6831,"final":6832,"issue":6833,"ped":6834,"rf":6835,"rstrip":6836,"slice":6837,"uch":6838,"ya":6839,"{{":6840,"ini":6841,"ining":6842,"inux":6843,"Ġcent":6844,"Ġcaesar":6845,"Ġinfix":6846,"aring":6847,"algorithm":6848,"Ġss":6849,"Ġsvm":6850,"ctim":6851,"Ġderiv":6852,"Ġeps":6853,"loud":6854,"Ġstem":6855,"itecture":6856,"ĠisPalindrome":6857,"ĠTEST":6858,"coef":6859,"Ġ29":6860,"Ġsec":6861,"formed":6862,"Ġresp":6863,"apps":6864,"ĠShow":6865,"ĠĠĠĠĠĠĠĠĠĠĠĠĠĠĠĠĠĠĠĠĊ":6866,"Ġdeep":6867,"Ġwithdraw":6868,"ĠAd":6869,"Ġlevels":6870,"ĠGame":6871,"ĠMark":6872,"currency":6873,"angman":6874,"ĠRegression":6875,"ĠRoman":6876,"okie":6877,"Ġperimeter":6878,"Connection":6879,"factory":6880,"logging":6881,"Ġconverting":6882,"aves":6883,"Ġextracted":6884,"SECRET":6885,"LED":6886,"Arrows":6887,"Ġrequires":6888,"Ġdecrypt":6889,"Ġphi":6890,"999":6891,"caps":6892,"Ġgood":6893,"traction":6894,"ralle":6895,"=[]":6896,"URI":6897,"ĠÐº":6898,"MAX":6899,"destination":6900,"ĠINTEGER":6901,"Ġcontacts":6902,"Ġscikit":6903,"ĠRandomForestRegressor":6904,"ĠMethod":6905,"Ġflattened":6906,"Windows":6907,"fining":6908,"ArgumentParser":6909,"Ġsearches":6910,"\";":6911,"&*":6912,"'+":6913,"04":6914,"?',":6915,"Adam":6916,"Download":6917,"IR":6918,"Mon":6919,"NING":6920,"NIST":6921,"OK":6922,"Qt":6923,"SC":6924,"SO":6925,"TEST":6926,"UNT":6927,"Vowels":6928,"_{":6929,"cube":6930,"dt":6931,"gh":6932,"hicle":6933,"ln":6934,"mysql":6935,"padding":6936,"qa":6937,"sin":6938,"syn":6939,"tt":6940,"tz":6941,"ually":6942,"virtual":6943,"Ġtorch":6944,"states":6945,"eros":6946,"atin":6947,"deb":6948,"health":6949,"Ġinp":6950,"ummy":6951,"allen":6952,"utakaReq":6953,"Ġtogether":6954,"define":6955,"ĠPRO":6956,"Ġelapsed":6957,"Ġstderr":6958,"chdir":6959,"('<":6960,"verbose":6961,"quote":6962,"upon":6963,"copg":6964,"')(":6965,"Ġrespect":6966,"Ġcoin":6967,"ici":6968,"people":6969,"ĠCircle":6970,"uby":6971,"consecutive":6972,"lenium":6973,"ĠAuthor":6974,"urlparse":6975,"Ġsumm":6976,"classmethod":6977,"Ġgetting":6978,"export":6979,"alculating":6980,"ĠGCD":6981,"Ġprepare":6982,"Ġrule":6983,"ĠEuclidean":6984,"php":6985,"phant":6986,"ĠUsing":6987,"greeting":6988,"Ġshop":6989,"Description":6990,"Ġattemp":6991,"fact":6992,"ĠInstall":6993,"Ġreverses":6994,"returns":6995,"Ġmylist":6996,"ĠExecute":6997,"spaces":6998,"Ġmanip":6999,"captcha":7000,"Anagram":7001,"Ġvertex":7002,"volution":7003,"Compute":7004,"Ġjobs":7005,"Ġauto":7006,"seqs":7007,"Ġfrequently":7008,"ULL":7009,"........":7010,"Ġworking":7011,"Ġbuy":7012,"Ġautomated":7013,"baud":7014,"cuda":7015,"Ġrequirements":7016,"macro":7017,"Ġcrossover":7018,"(.*)":7019,"(.*?)":7020,"deredDict":7021,"Ġbounds":7022,"voltdb":7023,"ĠDisplay":7024,"Ġscalar":7025,"Obj":7026,"Ġmathematical":7027,"\"},":7028,"-',":7029,"@#$%":7030,"Flow":7031,"Found":7032,"GL":7033,"Graph":7034,"Person":7035,"Vec":7036,"_=\"":7037,"cas":7038,"flags":7039,"gui":7040,"mc":7041,"ny":7042,"ools":7043,"punct":7044,"patterns":7045,"uint":7046,"ym":7047,"Ġ),":7048,"repr":7049,"receiv":7050,"Ġtick":7051,"Ġpse":7052,"Ġpsy":7053,"Ġfl":7054,"Ġinher":7055,"Ġtheta":7056,"Ġnb":7057,"Ġnet":7058,"roy":7059,"nding":7060,"Ġmul":7061,"Ġwrapper":7062,"Ġ\"</":7063,"tep":7064,"()).":7065,"iling":7066,"oto":7067,"edit":7068,"ĠTensor":7069,"Ġsep":7070,"Ġsecurity":7071,"Ġcolour":7072,"Ġalphabets":7073,"\")]":7074,"ĠSample":7075,"ĠSystem":7076,"possible":7077,"]);":7078,"])]":7079,"ĠIter":7080,"Ġvc":7081,"='')":7082,"ops":7083,"Ġpreprocessing":7084,"Ġsubsets":7085,"Ġ:-":7086,"readlines":7087,"ĠRE":7088,"ĠRectangle":7089,"ĠRetrie":7090,"scra":7091,"ograph":7092,"ixed":7093,"Ġfeat":7094,"rectangle":7095,"Ġmulti":7096,"Ġ10000":7097,"ĠSecond":7098,"Ġgreen":7099,"ĉĉĉĊ":7100,"('/',":7101,"Ġupdates":7102,"ĠProduct":7103,"Ġinstances":7104,"backend":7105,"Ġdecrypted":7106,"ENV":7107,"pie":7108,"Ġbuilds":7109,"Policy":7110,"Ġfoo":7111,"Ġswapped":7112,"Ġselected":7113,"Ġrecursively":7114,"Board":7115,"SVC":7116,"Ġconnected":7117,"Ġpolynomial":7118,"activity":7119,"guesses":7120,"Indx":7121,"Ġlookup":7122,"ĠKeyError":7123,"Ġedges":7124,"trees":7125,"Ġbias":7126,"Ġdetermines":7127,"Ġtraceback":7128,"AuthHandler":7129,"Bucket":7130,"Ġperiod":7131,"Ġpsycopg":7132,"0123456789":7133,"54":7134,"?'":7135,"BN":7136,"CP":7137,"Fizz":7138,"IX":7139,"Job":7140,"Oc":7141,"PY":7142,"PER":7143,"PAS":7144,"Sc":7145,"]=":7146,"band":7147,"basic":7148,"cro":7149,"false":7150,"pid":7151,"Ñĭ":7152,"Ġí":7153,"Ġĉ":7154,"rer":7155,"Ġactions":7156,"Ġaux":7157,"orical":7158,"attributes":7159,"Ġcd":7160,"Ġcy":7161,"Ġcart":7162,"Ġforest":7163,"Ġreset":7164,"Ġnorm":7165,"Ġsending":7166,"uri":7167,"entries":7168,"Ġmd":7169,"ĠPand":7170,"Ġbt":7171,"teen":7172,"()),":7173,"dice":7174,"esc":7175,"__,":7176,"machine":7177,"igi":7178,"eter":7179,"asename":7180,"ĠFill":7181,"Ġalways":7182,"Ġasyn":7183,"Ġimports":7184,"ubs":7185,"Ġhanoi":7186,"Ġdeck":7187,"Ġdeposit":7188,"cio":7189,"Ġexact":7190,"ĠOptim":7191,"arrays":7192,"Install":7193,"minimum":7194,"computer":7195,"aving":7196,"owner":7197,"gradient":7198,"Project":7199,"chema":7200,"ĠConv":7201,"ĠConstructor":7202,"READ":7203,"Ġpopular":7204,"latest":7205,"undred":7206,"Ġartist":7207,"Ġhandling":7208,"createElement":7209,"Ġ./":7210,"Ġspacy":7211,"Ġiterations":7212,")+\"":7213,"Ġsimilar":7214,"SERVICE":7215,"iterations":7216,"events":7217,"Tests":7218,"ĠDatabase":7219,"DBUS":7220,"Ġallowed":7221,"forever":7222,"Ġcleaned":7223,"Ġapproach":7224,"small":7225,"Ġ'{\"":7226,"buf":7227,"Ġratings":7228,"ĠQuick":7229,"lugin":7230,"Root":7231,"Â°Â°Â°Â°":7232,"Ġinstructions":7233,"Ġcmupdf":7234,"repeat":7235,"ĠScikit":7236,"rocery":7237,"available":7238,"Signal":7239,"allenge":7240,"ĠPandas":7241,"!',":7242,")}":7243,"-\\":7244,"/')":7245,"BUT":7246,"Cli":7247,"Core":7248,"CLU":7249,"Event":7250,"Frequency":7251,"Finder":7252,"GEN":7253,"Helper":7254,"JECT":7255,"LT":7256,"Out":7257,"Sentence":7258,"^&*":7259,"hive":7260,"ki":7261,"vo":7262,"vas":7263,"Ġ).":7264,"Ġ?)":7265,"step":7266,"orth":7267,"Ġink":7268,"Ġsr":7269,"Ġsleep":7270,"uron":7271,"Ġda":7272,"Ġbrowser":7273,"Ġstars":7274,"dialog":7275,"using":7276,"ĠTask":7277,"Ġannot":7278,"etree":7279,"Ġdefined":7280,"todo":7281,"pear":7282,"ĠSpa":7283,"ĠScra":7284,"rength":7285,"arts":7286,"ĠAuth":7287,"Ġnotification":7288,"ĠLa":7289,"serial":7290,"serialize":7291,"ĠDB":7292,"ĠDate":7293,"Ġleg":7294,"ĠMon":7295,"ĠMNIST":7296,"boot":7297,"Ġwere":7298,"timeout":7299,"Ġcomm":7300,"Ġkmeans":7301,"sites":7302,"../":7303,"ugment":7304,"schema":7305,"headline":7306,"placeholder":7307,"Ġshuff":7308,"ificial":7309,"ARD":7310,"ĠSepar":7311,"Ġsuff":7312,"Ġsequences":7313,"().__":7314,"bottom":7315,"Ġdocumentation":7316,"categories":7317,"Parent":7318,"Nodes":7319,"Ġpriority":7320,"Ġprivate":7321,"Ġseparator":7322,"ĠNeural":7323,"imaginary":7324,"Ġopts":7325,"Ġfixed":7326,"period":7327,"Ġinstruction":7328,"Ġcredentials":7329,"symbol":7330,"rallel":7331,"(%":7332,".</":7333,"?\"":7334,"Cor":7335,"Celsius":7336,"Flask":7337,"Parse":7338,"Range":7339,"Sup":7340,"Square":7341,"With":7342,"house":7343,"Ġ^":7344,"inventory":7345,"reference":7346,"Ġtie":7347,"Ġpan":7348,"Ġpickle":7349,"Ġfuture":7350,"Ġfront":7351,"uman":7352,"Ġslot":7353,"ĠĠĠĠĠĠĠĠĠĊ":7354,"Ġms":7355,"Ġembedding":7356,"orti":7357,"unch":7358,"unic":7359,"Ġglob":7360,"Ġlxml":7361,"Ġprob":7362,"Ġprofit":7363,"___":7364,"ationB":7365,"('',":7366,"ĠTH":7367,"Ġresources":7368,"Ġmade":7369,"Ġmakes":7370,"Ġmagnitude":7371,"']}":7372,"ablish":7373,"artment":7374,"ĠAnd":7375,"ĠDep":7376,"Ġpolicy":7377,"Ġitself":7378,"ĠGrid":7379,"coming":7380,"ĠOption":7381,"sums":7382,"Ġonce":7383,"ĠEach":7384,"ĠEvent":7385,"Ġpermission":7386,"translation":7387,"Ġdivision":7388,"ĠKEY":7389,"objective":7390,"Ġdbus":7391,"backends":7392,"disco":7393,"Ġclosed":7394,"struction":7395,"Ġcorrectly":7396,"DOM":7397,"callback":7398,"Ġoperators":7399,"Ġseparated":7400,"ADD":7401,"Ġorders":7402,"linux":7403,"contains":7404,"activate":7405,"bucket":7406,"Ġfinished":7407,"Ġrotation":7408,"Ġedge":7409,"ĠangleDeg":7410,"variant":7411,"Ġarchive":7412,"~-~-~-~-":7413,"Ġindicating":7414,"cuts":7415,"Identify":7416,"ĠWordNetLemmatizer":7417,"Success":7418,"Ġsuffix":7419,"08":7420,"Author":7421,"Buzz":7422,"Cipher":7423,"GROUP":7424,"LC":7425,"Over":7426,"PL":7427,"PR":7428,"Pop":7429,"Scale":7430,"SUMER":7431,"Widget":7432,"bash":7433,"cert":7434,"cities":7435,"cpu":7436,"dns":7437,"eep":7438,"gger":7439,"humidity":7440,"pwd":7441,"qem":7442,"sources":7443,"}</":7444,"Ñı":7445,"Ġê":7446,"repo":7447,"reward":7448,"Ġtx":7449,"Ġtar":7450,"star":7451,"erf":7452,"sect":7453,"delay":7454,"Ġpunctuations":7455,"Ġpalindromic":7456,"Ġcmap":7457,"Ġcircumference":7458,"Ġimag":7459,"Ġflight":7460,"Ġsi":7461,"Ġsimp":7462,"member":7463,"Ġ\"\":":7464,"lope":7465,"loaded":7466,"Ġborder":7467,"Ġbirth":7468,"Ġgr":7469,"chart":7470,"Ġlpi":7471,"Ġprobe":7472,"__()":7473,"ramble":7474,"illa":7475,"oting":7476,"ationA":7477,"(':":7478,"ĠTic":7479,"isbn":7480,"quired":7481,"ups":7482,"coefficient":7483,"izers":7484,"-----":7485,"Ġseason":7486,"Ġselenium":7487,"ascending":7488,"Ġconcat":7489,"Ġconsonants":7490,"Ġwordnet":7491,"Ġalphanumeric":7492,"ĠScore":7493,"Ġimportant":7494,"Ġhappy":7495,"Ġhumidity":7496,"ĠNULL":7497,"Ġjet":7498,"Ġmet":7499,"Ġ%}":7500,"matches":7501,"outh":7502,"ĠGra":7503,"comments":7504,"Ġdirect":7505,"ĠOther":7506,"ured":7507,"Ġones":7508,"ared":7509,"monds":7510,"Ġchecked":7511,"neighbor":7512,"subsequence":7513,"headlines":7514,"Ġparses":7515,"INFO":7516,"Ġfilled":7517,"Ġdiscount":7518,"Ġfeed":7519,"ĠĠĠĠĠĠĠĠĠĠĠĠĠĠĠĠĠĠĠĠĠĠĠĠĠĠĠĠĠĠĠĠĠĠĠĠ":7520,"Ġlogistic":7521,"divide":7522,"ĠDefining":7523,"Ġtfidf":7524,"Arr":7525,"ipping":7526,"UTH":7527,"Ġ---":7528,"Ġnoun":7529,"checker":7530,"ormalize":7531,"ISO":7532,"ILURE":7533,"CODE":7534,"marker":7535,"bounds":7536,"weathermap":7537,"Ġoffspring":7538,"occurrence":7539,"Ġdecoded":7540,"jection":7541,"Ġfigure":7542,"Ġdialogflow":7543,"Ġ----------":7544,"@#$%^&*":7545,"qemu":7546,"#*":7547,"(**":7548,")['":7549,".##":7550,"/>.":7551,"07":7552,"2000":7553,"63":7554,"89":7555,"=-":7556,">\")":7557,"LIN":7558,"Letter":7559,"MIN":7560,"Network":7561,"PLAY":7562,"Red":7563,"Stem":7564,"Spec":7565,"TON":7566,"Usage":7567,"WPAS":7568,"]/":7569,"]==":7570,"clock":7571,"dump":7572,"eg":7573,"fi":7574,"lator":7575,"nth":7576,"yes":7577,"zure":7578,"increasing":7579,"reddit":7580,"semb":7581,"radians":7582,"Ġpick":7583,"Ġreplaces":7584,"urface":7585,"meck":7586,"geometry":7587,"Ġol":7588,"utor":7589,"Ġdic":7590,"Ġdynamic":7591,"ĠPort":7592,"ĠPlease":7593,"ĠPORT":7594,"Ġwriter":7595,"Ġforms":7596,"riend":7597,"chmeck":7598,"oll":7599,"(\"[":7600,"major":7601,"getElement":7602,"isdir":7603,"forward":7604,"Ġconvent":7605,"Ġconanfile":7606,"ĠSE":7607,"ĠSO":7608,"ĠSim":7609,"ĠChat":7610,"Ġchunk":7611,"Ġham":7612,"Ġ300":7613,"Ġdelay":7614,"oney":7615,"])/":7616,"ĠAp":7617,"Ġclassifies":7618,"ĠDiv":7619,"Reverse":7620,"exclude":7621,"exercise":7622,"jectory":7623,"bos":7624,"Ġruntime":7625,"ĠError":7626,"Ġkv":7627,"Ġknow":7628,"angular":7629,"Debug":7630,"Ġupdating":7631,".....":7632,"atory":7633,"Ġneutral":7634,"tokenized":7635,"sched":7636,"Ġ_,":7637,"ĠIndex":7638,"Ġservices":7639,"ocker":7640,"IND":7641,"INST":7642,"ĠPrints":7643,"Ġ2020":7644,"Ġextracting":7645,"ORE":7646,"Ġcorrelation":7647,"ĠState":7648,"Ġdisplaying":7649,"Ġtravel":7650,"ĠProject":7651,"primary":7652,"private":7653,"sendmail":7654,"Ġcompleted":7655,"168":7656,"NUM":7657,"party":7658,"controller":7659,"built":7660,"Loop":7661,"DateTime":7662,"elephant":7663,"Ġpascal":7664,"Ġconstraint":7665,"Operation":7666,"(?:":7667,"Ġrestaurant":7668,"Ġdiagonal":7669,"Andor":7670,"ĠLabelEncoder":7671,"cedence":7672,"PASS":7673,"Control":7674,"Ġbusiness":7675,"Ġdecorator":7676,"Ġcandidate":7677,"Ġfurther":7678,"ĠRetrieve":7679,"ĠSeparate":7680,"-.":7681,"03":7682,"?\")":7683,"AG":7684,"ACT":7685,"FE":7686,"GN":7687,"GHT":7688,"II":7689,"IAL":7690,"Lab":7691,"Mac":7692,"Meta":7693,"OAuthHandler":7694,"Port":7695,"Phone":7696,"RM":7697,"RGB":7698,"Spe":7699,"Split":7700,"Schema":7701,"Ut":7702,"batch":7703,"cr":7704,"dr":7705,"free":7706,"gt":7707,"mx":7708,"mall":7709,"none":7710,"pickle":7711,"rong":7712,"same":7713,"sparse":7714,"wrap":7715,"erce":7716,"oring":7717,"attribute":7718,"enum":7719,"devices":7720,"Ġpatterns":7721,"Ġcfg":7722,"Ġcarry":7723,"Ġfrappe":7724,"Ġreach":7725,"Ġsends":7726,"lict":7727,"ything":7728,"ulary":7729,"Ġbpy":7730,"ilent":7731,"numpy":7732,"('[":7733,"('''":7734,"Ġanomalies":7735,"ĠCalculator":7736,"ĠCalculating":7737,"fromstring":7738,"Ġxrange":7739,"istant":7740,"Ġmedia":7741,"texto":7742,"moved":7743,"Ġ51":7744,"Ġ55":7745,"Ġtwisted":7746,"exceptions":7747,"Ġexcl":7748,"Ġexpr":7749,"ĠGen":7750,"ĠGener":7751,"weapon":7752,"ĠEmbedding":7753,"Ġmini":7754,"Ġending":7755,"ĠRed":7756,"nearest":7757,"Ġneighbour":7758,"subtract":7759,"ĠComplex":7760,"vectors":7761,"vectorized":7762,"Ġroutes":7763,"Ġzeros":7764,"positions":7765,"ĠKeras":7766,"Ġbreed":7767,"interval":7768,"Seq":7769,"spot":7770,"Ġmeaning":7771,"ĠStreet":7772,"ĠbinarySearch":7773,"postgres":7774,"Ġcalls":7775,"DEX":7776,"Ġhandwritten":7777,"Ġdepending":7778,"duces":7779,"lemmatizer":7780,"piral":7781,"Ġvery":7782,"Ġiterator":7783,"Ġoccurring":7784,"evenshtein":7785,"Ġmonitor":7786,"openweathermap":7787,"Neutral":7788,"TextField":7789,"ĠseriesParams":7790,"Ġinstallation":7791,"Ġportfolio":7792,"CHEM":7793,"forecast":7794,"Ġnumerator":7795,"Ġmonths":7796,"fetchone":7797,"ĠBoard":7798,"numeric":7799,"combined":7800,"Ġfinally":7801,"Interface":7802,"ĠCommand":7803,"padded":7804,"Temperature":7805,"multiplication":7806,"(',')":7807,"Ġrecognize":7808,"Ġapplicable":7809,"Ġwhole":7810,"processed":7811,"ssbData":7812,"INTERFACE":7813,"Ġrespective":7814,"Stemmer":7815,"$'":7816,"48":7817,";\\":7818,"Dn":7819,"DER":7820,"DIT":7821,"DING":7822,"DATE":7823,"Eng":7824,"Gra":7825,"Gender":7826,"If":7827,"PRI":7828,"Rate":7829,"Win":7830,"]*(":7831,"basename":7832,"dts":7833,"fct":7834,"found":7835,"rr":7836,"æķ":7837,"Ġri":7838,"Ġ))":7839,"Ġ])":7840,"Ġ..":7841,"inv":7842,"information":7843,"recv":7844,"recogn":7845,"Ġts":7846,"Ġawait":7847,"Ġaudio":7848,"stat":7849,"ora":7850,"Ġplayers":7851,"Ġca":7852,"Ġclock":7853,"Ġfd":7854,"Ġfet":7855,"Ġinner":7856,"Ġrecent":7857,"Ġrepr":7858,"arp":7859,"rocess":7860,"Ġow":7861,"Ġ'':":7862,"ĠPath":7863,"ceive":7864,"lash":7865,"rible":7866,"ollow":7867,"ĠTk":7868,"resize":7869,"resources":7870,"coin":7871,"coordinates":7872,"named":7873,"iguous":7874,"ascript":7875,"Ġresol":7876,"Ġcoeff":7877,"icro":7878,"ĠCase":7879,"ĠChoose":7880,"console":7881,"Ġhog":7882,"Ġdegree":7883,"paragraph":7884,"ĠAssign":7885,"Ġ%.":7886,"ĠLSTM":7887,"Ġexponent":7888,"Ġorient":7889,"protocol":7890,"ĠML":7891,"Ġsetting":7892,"initial":7893,"Ġuuid":7894,"ĠEdit":7895,"Ġmins":7896,"findAll":7897,"tries":7898,").__":7899,"Ġ99":7900,"scape":7901,"ĠreverseString":7902,"venshtein":7903,"Ġexternal":7904,"avascript":7905,"Ġdiscriminant":7906,"aking":7907,"ĠĠĠĠĠĠĠĠĠĠĠĠĠĠĠĠĠĠĠĠĠĠĠĠĠĠĠĠĠĠĠĠĠĠĠĠĠ":7908,"Ġdocs":7909,"preds":7910,"Median":7911,"uffer":7912,"boton":7913,"centro":7914,"Ġnoqa":7915,"cade":7916,"Ġdetected":7917,"Ġmanner":7918,"Ġmanifest":7919,"Idx":7920,"assertFalse":7921,"ĠTesting":7922,"Ġhigher":7923,"ĠQueue":7924,"Ġsimul":7925,"Ġfood":7926,"Ġequations":7927,"Move":7928,"skip":7929,"sqlalchemy":7930,"versation":7931,"Three":7932,"curences":7933,"super":7934,"winner":7935,"Ġmemc":7936,"Minimum":7937,"levels":7938,"ĠQuery":7939,"Goodbye":7940,"ÂłÂłÂłÂłÂłÂłÂł":7941,"Route":7942,"ĠTransform":7943,"[^\\":7944,"ĠService":7945,"Ġcredit":7946,"Callbacks":7947,"mazon":7948,"mazing":7949,"evt":7950,"Ġpkt":7951,"Ġtechniques":7952,"ĠHttpResponse":7953,"components":7954,"orpho":7955,"Ġancestors":7956,"arshalling":7957,"ĠTensorFlow":7958,"ĠinkDraw":7959,"ugmented":7960,"Ġconvention":7961,".)":7962,"67":7963,"=\",\"":7964,"AE":7965,"Back":7966,"Dire":7967,"MD":7968,"Part":7969,"Sample":7970,"Small":7971,"big":7972,"brid":7973,"craw":7974,"fab":7975,"ginal":7976,"hp":7977,"lr":7978,"mg":7979,"ple":7980,"tot":7981,"åı":7982,"è¯":7983,"ìĦ":7984,"ï¼":7985,"Ġerr":7986,"Ġ?,":7987,"Ġvec":7988,"inline":7989,"rep":7990,"render":7991,"Ġaw":7992,"ering":7993,"ondo":7994,"ondon":7995,"atible":7996,"atives":7997,"Ġpadd":7998,"Ġplugin":7999,"Ġcrop":8000,"Ġinverse":8001,"Ġreached":8002,"Ġsat":8003,"Ġtok":8004,"ĠPipeline":8005,"Ġwind":8006,"Ġ\"|":8007,"rival":8008,"Ġbra":8009,"Ġstat":8010,"Ġstation":8011,"Ġstates":8012,"anner":8013,"ombre":8014,"));":8015,"ism":8016,"force":8017,"Ġyet":8018,"Ġ{{":8019,"tour":8020,"Ġhive":8021,"Ġfunctionality":8022,"ĠNote":8023,"ĠApache":8024,"Ġnotice":8025,"ĠLIS":8026,"accept":8027,"Ġwhite":8028,"Ġ48":8029,"previous":8030,"expand":8031,"Ġtaking":8032,"ĠBe":8033,"ĠBST":8034,"ĠBUT":8035,"probability":8036,"ĠGe":8037,"ĠGPIO":8038,"ĠEnd":8039,"Ġ85":8040,"Ġhealth":8041,"ocode":8042,"ĠHost":8043,"Ġunits":8044,"starttls":8045,"Ġenable":8046,"locations":8047,"mitted":8048,"Ġhashed":8049,"players":8050,"Ġdisable":8051,"ĠDelete":8052,"Ġreading":8053,"chef":8054,"Ġactivity":8055,"RECT":8056,"Ġdfs":8057,"corr":8058,"Ġcalling":8059,"Ġdefaults":8060,"Ġ256":8061,"tesian":8062,"ElementTree":8063,"notification":8064,"Analyze":8065,"000000":8066,"Ġhosts":8067,"Ġgover":8068,"updates":8069,"distinct":8070,"Ġbackground":8071,"uzzy":8072,"Face":8073,"rypto":8074,"commerce":8075,"Ġbucket":8076,"ĠSQLite":8077,"Ġ'-':":8078,"âĢĻ,":8079,"Ġautomate":8080,"Ġpublish":8081,"ĠApple":8082,"etails":8083,"Ġappear":8084,"errprint":8085,"descending":8086,"ĠTreeNode":8087,"capitalized":8088,"ĠCommon":8089,"operation":8090,"Ġ'*':":8091,"FTWARE":8092,"IMarshalling":8093,"Ġ>>>":8094,"complete":8095,"irmware":8096,"BUG":8097,"symbols":8098,"Autom":8099,"ĠinvertArrows":8100,"separated":8101,"TERN":8102,"baudrate":8103,"Occur":8104,"ĠSOFTWARE":8105,"rocessing":8106,"IMarshallingTests":8107,"!!":8108,"\"})":8109,")\",":8110,".+":8111,"033":8112,"96":8113,"AGE":8114,"CB":8115,"Employee":8116,"MAT":8117,"Male":8118,"NOT":8119,"PDF":8120,"Queue":8121,"SH":8122,"Site":8123,"TF":8124,"Tri":8125,"browser":8126,"cp":8127,"cation":8128,"cwd":8129,"dst":8130,"embedding":8131,"fname":8132,"gener":8133,"happy":8134,"kmeans":8135,"sam":8136,"silent":8137,"tx":8138,"invalid":8139,"Ġtv":8140,"erStemmer":8141,"ongs":8142,"heses":8143,"Ġcla":8144,"Ġflower":8145,"Ġfsize":8146,"Ġindependent":8147,"arc":8148,"umb":8149,"Ġ'\"":8150,"lft":8151,"unity":8152,"Ġbins":8153,"Ġblack":8154,"Ġbetter":8155,"tection":8156,"vertex":8157,"ĠTable":8158,"isfile":8159,"isual":8160,"resol":8161,"uple":8162,"ĠFA":8163,"']),":8164,"ĠSH":8165,"ĠClient":8166,"Ġdescript":8167,"pyvex":8168,"Ġvocab":8169,"ĠLevenshtein":8170,"ĠDAT":8171,"Required":8172,"Ġexpress":8173,"Ġtail":8174,"Ġleaf":8175,"ĠBY":8176,"ĠGtk":8177,"Ġstrategy":8178,"ĠOT":8179,"sumption":8180,"Ġuserdata":8181,"ĠEl":8182,"Ġsubtraction":8183,"([(":8184,"readline":8185,"Ġ{}\\":8186,"anging":8187,"Ġcompound":8188,"ĠWindow":8189,"ĠWhen":8190,"ĠWikipedia":8191,"Ġneg":8192,"Ġpercent":8193,"Ġrock":8194,"127":8195,"crement":8196,"aging":8197,"Comple":8198,"Ġreadable":8199,"intercept":8200,"ITE":8201,"Ġinterval":8202,"Ġinternal":8203,"Ġdirectories":8204,"Ġparents":8205,"goal":8206,"Ġgenes":8207,"rules":8208,"matching":8209,"Ġswarm":8210,"=[],":8211,"Header":8212,"COUNT":8213,"stocks":8214,"Ġaggreg":8215,"LIED":8216,"({\"":8217,"boundary":8218,"ĠResult":8219,"contacts":8220,"pkg":8221,"Ġpipe":8222,"MPLIED":8223,"threads":8224,"CONSUMER":8225,"Ġconsisting":8226,"cntl":8227,"dddddddd":8228,"Begin":8229,"animals":8230,"DecisionTreeClassifier":8231,"ĠThread":8232,"divisors":8233,"notebook":8234,"COLOR":8235,"Ġstarted":8236,"#------------------------------------------------------------------------------":8237,"fabm":8238,"#================================================================":8239,"'\"":8240,")],":8241,"+)":8242,"130":8243,"97":8244,":],":8245,"Cod":8246,"Calculator":8247,"EG":8248,"Flags":8249,"High":8250,"Jack":8251,"Mem":8252,"Many":8253,"Mongo":8254,"Plot":8255,"Source":8256,"Sorry":8257,"TR":8258,"VI":8259,"actor":8260,"cg":8261,"cision":8262,"dat":8263,"each":8264,"gain":8265,"lint":8266,"mPath":8267,"rations":8268,"sun":8269,"timer":8270,"vowel":8271,"åĪ":8272,"Ġ()":8273,"Ġque":8274,"Ġtd":8275,"Ġaround":8276,"Ġpot":8277,"Ġpaper":8278,"Ġfruit":8279,"itics":8280,"alid":8281,"Ġsorry":8282,"Ġsince":8283,"defer":8284,"ssl":8285,"rick":8286,"rics":8287,"Ġbel":8288,"tems":8289,"Ġ180":8290,"ames":8291,"Ġlin":8292,"Ġlsm":8293,"Ġthings":8294,"Ġisbn":8295,"edy":8296,"(\"{":8297,"('.')":8298,"async":8299,"ĠForest":8300,"tolist":8301,"Ġasync":8302,"ĠScript":8303,"ĠStep":8304,"ĠCur":8305,"concaten":8306,"conanfile":8307,"Ġpast":8308,"tac":8309,"Ġ5000":8310,"ĠLayer":8311,"ĠDot":8312,"Ġpointer":8313,"Ġexc":8314,"ĠBank":8315,"prog":8316,"program":8317,"][-":8318,"extra":8319,"park":8320,"redu":8321,"tainer":8322,"ĠRO":8323,"ĠRo":8324,"ĠRock":8325,"Ġlinewidth":8326,"Ġoutfile":8327,"------------------------":8328,"Ġ/>":8329,"mydb":8330,"scrap":8331,"Listing":8332,"blems":8333,"years":8334,"Ġ2015":8335,"ĠĠĠĠĠĠĠĠĠĠĠĠĠĠĠĠĠĠĠĠĠĠĠĠĠĠĠĠĠĠĠĠĠĠĠĠĠĠĠĠĠĠĠĠĠĠĠĠĠĠĠĠĠĠĠĠĠĠĠĠĠĠĠĠ":8336,"gramps":8337,"worker":8338,"crew":8339,"refresh":8340,"Ġopening":8341,"Ġrights":8342,"ĠContent":8343,"Ġsuit":8344,"ĠYANG":8345,"tected":8346,"ALCHEM":8347,"berry":8348,"species":8349,"Ġsnip":8350,"createText":8351,"lemmatize":8352,"Ġdifferences":8353,"ĠQt":8354,"ĠArgument":8355,"manage":8356,"Pair":8357,"ĠMultip":8358,"017":8359,"Serializer":8360,"makedirs":8361,"Ġspan":8362,"Ġspell":8363,"destroy":8364,"ĠProgramming":8365,"Ġ'-'":8366,"RIGHT":8367,"SQLALCHEM":8368,"audio":8369,"```":8370,"Ġgradients":8371,"visibility":8372,"pkt":8373,"shortcuts":8374,"(_(\"":8375,"ĠClassifier":8376,"ĠPyTango":8377,"Ġstorage":8378,"Ġpermute":8379,"halfSize":8380,"Ġheapify":8381,"Features":8382,"Ġblue":8383,"requirements":8384,"Ġplaintext":8385,"Ġtrees":8386,"cupation":8387,"ĠDictionary":8388,"Auto":8389,"Ġalternative":8390,"ĠTriangle":8391,"Volt":8392,"flush":8393,"Ġpulp":8394,"ĠTypeError":8395,"etermine":8396,"CLUDING":8397,"createTextNode":8398,"SQLALCHEMY":8399,"!\"))":8400,".\"))":8401,"/.":8402,"/?":8403,"BeautifulSoup":8404,"GIMarshallingTests":8405,"Linked":8406,"OFF":8407,"RMA":8408,"Width":8409,"aff":8410,"bbox":8411,"brown":8412,"cf":8413,"cce":8414,"jz":8415,"java":8416,"ka":8417,"nl":8418,"oo":8419,"pig":8420,"puzzle":8421,"uup":8422,"Ð¹":8423,"ÑĪ":8424,"Ġutils":8425,"Ġtic":8426,"atial":8427,"delimiter":8428,"leaf":8429,"Ġregressor":8430,"arrange":8431,"role":8432,"Ġsv":8433,"Ġslice":8434,"urlen":8435,"nds":8436,"Ġ\"\",":8437,"Ġforce":8438,"rive":8439,"Ġbp":8440,"Ġbig":8441,"Ġbits":8442,"Ġbbox":8443,"Ġgeneral":8444,"Ġgateway":8445,"Ġprotocol":8446,"endpoint":8447,"ĠisEmpty":8448,"ĠisAnagram":8449,"grams":8450,"(\"<":8451,"(\"\")":8452,"maze":8453,"ĠTitle":8454,"quota":8455,"Ġcoord":8456,"Ġ{%":8457,"\")[":8458,"ĠSET":8459,"ĠSquare":8460,"abcd":8461,"Ġdev":8462,"Ġje":8463,"ĠAP":8464,"Ġmedi":8465,"ĠDist":8466,"ĠDia":8467,"Ġ44":8468,"Ġlevenshtein":8469,"props":8470,"Ġitree":8471,"ĠMap":8472,"ĠON":8473,"Ġmount":8474,"monstr":8475,"sition":8476,"ĠUt":8477,"..',":8478,"nections":8479,"Ġlinestyle":8480,"ĠHow":8481,"Ġ95":8482,"ensive":8483,"Ġatta":8484,"Contact":8485,"Ġstartproject":8486,"antiate":8487,"Ġosg":8488,"truth":8489,"Ġshut":8490,"Ġhashtag":8491,"filters":8492,"Ġrobot":8493,"crease":8494,"Ġsynon":8495,"NTU":8496,"Ġoperand":8497,"calendar":8498,"Chars":8499,"Ġmultiplied":8500,"Ġmultiprocessing":8501,"ipped":8502,"disk":8503,"discount":8504,"LOW":8505,"rupt":8506,"sends":8507,"Ġguesses":8508,"Ġpersonal":8509,"Series":8510,"ĠÐ²":8511,"Ġcopyright":8512,"CHAR":8513,"Factory":8514,"Fahrenheit":8515,"ĠIDs":8516,"Addr":8517,"Ġknn":8518,"marvin":8519,"calculated":8520,"Ġhypot":8521,"IOU":8522,"+'/":8523,"ĠforecastsDict":8524,"variance":8525,"Current":8526,"BUNTU":8527,"aeiouAE":8528,"ĠMaxPooling":8529,"Optimized":8530,"business":8531,"outcomes":8532,"Ġvictim":8533,"ĠProcessing":8534,"PROJECT":8535,"medium":8536,"Ġutility":8537,"storage":8538,"Ġmigrate":8539,"Original":8540,"ĠFeature":8541,"stems":8542,"virtualenv":8543,"ĠDepth":8544,"riendly":8545,"DateTimeField":8546,"æķ°":8547,"centroids":8548,"RMAA":8549,"urlencode":8550,"aeiouAEIOU":8551,"+\",":8552,".'.":8553,"800":8554,":\"":8555,"<=":8556,"BASE":8557,"Float":8558,"Gue":8559,"La":8560,"Lay":8561,"Largest":8562,"MI":8563,"MM":8564,"Main":8565,"Most":8566,"Pan":8567,"Pol":8568,"SU":8569,"So":8570,"SET":8571,"Target":8572,"TRI":8573,"[[":8574,"]**":8575,"`:":8576,"ipo":8577,"ket":8578,"nts":8579,"napsack":8580,"say":8581,"sphinx":8582,"vnc":8583,"warn":8584,"};":8585,"Ã¡":8586,"Ð´":8587,"Ñĩ":8588,"Ġ--------------------------------":8589,"erry":8590,"oration":8591,"oriz":8592,"decor":8593,"Ġplease":8594,"Ġfra":8595,"Ġinventory":8596,"umm":8597,"aly":8598,"aling":8599,"allow":8600,"Ġspiral":8601,"meters":8602,"utc":8603,"Ġtools":8604,"Ġmal":8605,"ĠPip":8606,"lace":8607,"Ġ\"\").":8608,"unded":8609,"ully":8610,"Ġbank":8611,"Ġstick":8612,"Ġguide":8613,"disp":8614,"otion":8615,"Ġ==================================================================":8616,"('//":8617,"idence":8618,"igns":8619,"==\"":8620,"Ġdefining":8621,"Ġsegment":8622,"Ġrespe":8623,"toe":8624,"']):":8625,"abal":8626,"Ġhard":8627,"Ġ37":8628,"artist":8629,"pytest":8630,"ĠDA":8631,"ĠDO":8632,"ĠDownload":8633,"Ġpocket":8634,"ough":8635,"ĠBE":8636,"ĠMeta":8637,"ĠOne":8638,"reads":8639,"Ġchecksum":8640,"Ġupgrade":8641,"jobs":8642,"greSQL":8643,"Ġouter":8644,"Ġfold":8645,"Ġunion":8646,"Ġfollowed":8647,"subplot":8648,"subprocess":8649,"eaf":8650,"Ġacross":8651,"Conf":8652,"ario":8653,"Ġextensions":8654,"reqcnt":8655,"newline":8656,"examples":8657,"Ġdisco":8658,"ctively":8659,"ĠĠĠĠĠĠĠĠĠĠĠĠĠĠĠĠĠĠĠĠĠĠĠĠĠĠĠĠĠĠĠĠĠ":8660,"Ġmyfile":8661,"ĠmyList":8662,"Ġdoub":8663,"ĠSequence":8664,"Probe":8665,"Second":8666,"ĠConstruct":8667,"REG":8668,"Ġpopulate":8669,"DEBUG":8670,"Ġ150":8671,"packager":8672,"created":8673,"Ġtranspose":8674,"Ġbuilding":8675,"Ġgoes":8676,"Ġgoogle":8677,"priority":8678,"manager":8679,"imgtag":8680,"ĠPreprocess":8681,"MAIL":8682,"DOWN":8683,"Ġimm":8684,"Ġefficiently":8685,"linical":8686,"Ġbuttons":8687,"Ġsupports":8688,"APL":8689,"Ġdownloads":8690,"Ġ\"-\",":8691,"ĠINST":8692,"ĠVectorize":8693,"Ġ8080":8694,"Ġfinish":8695,"Ġwebpages":8696,"finish":8697,"VERSION":8698,"Ġcomparator":8699,"ĠHearts":8700,"ĠBinaryTree":8701,"loyer":8702,"havi":8703,"Ġauthenticate":8704,"PUArray":8705,"lables":8706,"('./":8707,"abcdefghijklmnopqrstuvwxyzABCDEFGHIJKLMNOPQRSTUVWXYZ":8708,"distribution":8709,"LICENSE":8710,"Ġpatient":8711,"Ġmailbox":8712,"adoop":8713,"RPC":8714,"Category":8715,"Ġpurpose":8716,"Ġreserved":8717,"SOCK":8718,"LTK":8719,"ĠTHIS":8720,"ĠOtherwise":8721,"Ġsticky":8722,"Ġrespectively":8723,"'re":8724,"'\")":8725,"((\"":8726,"-'":8727,":,":8728,"AULT":8729,"Agent":8730,"AAPL":8731,"BT":8732,"Bayes":8733,"Dig":8734,"Four":8735,"FROM":8736,"Hist":8737,"Ignore":8738,"Items":8739,"KEN":8740,"Que":8741,"Rel":8742,"USE":8743,"VAL":8744,"Wait":8745,"]\\":8746,"]][":8747,"assign":8748,"basket":8749,"cpp":8750,"calculator":8751,"djz":8752,"epoch":8753,"gments":8754,"gamma":8755,"hanoi":8756,"ira":8757,"iency":8758,"llables":8759,"mq":8760,"ni":8761,"nan":8762,"nes":8763,"pet":8764,"purl":8765,"rtype":8766,"rRNA":8767,"six":8768,"sock":8769,"tid":8770,"ticle":8771,"uses":8772,"vor":8773,"ì§":8774,"Ġĉĉ":8775,"encoder":8776,"seen":8777,"security":8778,"Ġcut":8779,"Ġreason":8780,"itu":8781,"Ġnavig":8782,"Ġscope":8783,"Ġsieve":8784,"ctype":8785,"licies":8786,"Ġown":8787,"Ġmaps":8788,"Ġduring":8789,"ĠPol":8790,"ĠPacket":8791,"Ġbme":8792,"Ġbrand":8793,"Ġgn":8794,"ivers":8795,"challenge":8796,"disc":8797,"Ġprogress":8798,"))))":8799,"('')":8800,"mas":8801,"colour":8802,"Ġanswers":8803,"vect":8804,"Ġmacro":8805,"todos":8806,"ĠSup":8807,"ĠSpec":8808,"ĠCA":8809,"ĠCLI":8810,"imap":8811,"Ġhad":8812,"parameter":8813,"ĠNLTK":8814,"Ġjumped":8815,"more":8816,"Ġ56":8817,"Ġ587":8818,"urlpatterns":8819,"ĠDRMAA":8820,"Ġgets":8821,"Ġexpand":8822,"Ġordered":8823,"Ġleaves":8824,"ĠGlobal":8825,"Ġcurrency":8826,"Ġbehavi":8827,"='%":8828,"addition":8829,"Ġlaw":8830,"=\"/":8831,"Ġsubstr":8832,"readth":8833,"Ġcurrently":8834,"enses":8835,"Ġenco":8836,"osen":8837,"aystack":8838,"leton":8839,"playing":8840,"scripts":8841,"Ġtargets":8842,"oston":8843,"Ġ2014":8844,"creen":8845,"ĠKIND":8846,"Ġready":8847,"Select":8848,"quality":8849,"stemmer":8850,"lpi":8851,"Charact":8852,"ROOT":8853,"ĠlinearSearch":8854,"camp":8855,"Ġdeploy":8856,"Ġexpressions":8857,"fficiency":8858,"Ġconfigparser":8859,"single":8860,"nology":8861,"501":8862,"Ġstructures":8863,"Ġcategorize":8864,"poly":8865,"Ġavoid":8866,"Ġ'.'":8867,"Ġmonster":8868,"]+\"":8869,"signature":8870,"TestCase":8871,"Ġadjacent":8872,"ĠâĢĵ":8873,"Ġretrieves":8874,"abcabc":8875,"Ġmonthly":8876,"ĠbubbleSort":8877,"SearchCV":8878,"Ġpublisher":8879,"ĠNumbers":8880,"Ġdirs":8881,"\"}'":8882,"Attr":8883,"shortest":8884,"Ġdependent":8885,"unknown":8886,"appyProcess":8887,"itespaces":8888,"Logger":8889,"DEFAULT":8890,"cleaned":8891,"Weight":8892,"SSHA":8893,"Operations":8894,"MODE":8895,"Ġvisualization":8896,"IGN":8897,"IGHT":8898,"failure":8899,"IFACE":8900,"safe":8901,"ĠhalfSize":8902,"hesis":8903,"instances":8904,"Stock":8905,"imagen":8906,"ĠÂłĠ":8907,"servation":8908,"ulacion":8909,"inclusive":8910,"Missing":8911,"Tags":8912,"Ġ'{}'":8913,"Ġinterpreted":8914,"ĠClubs":8915,"Ġcenters":8916,"receiver":8917,"bandwidth":8918,"ĠSpades":8919,"ĠAuthentic":8920,"inlineCallbacks":8921,"ĠDiamonds":8922,"Ġsynonyms":8923,"!@#$%^&*":8924,"\"^":8925,"#--------------------------------":8926,")(":8927,"./":8928,"09":8929,"180":8930,"59":8931,"5000":8932,"62":8933,":`":8934,"As":8935,"Action":8936,"Camera":8937,"FIN":8938,"Freq":8939,"Gui":8940,"Ho":8941,"London":8942,"MT":8943,"MTP":8944,"Pos":8945,"Rock":8946,"Sentiment":8947,"Tac":8948,"Unk":8949,"bx":8950,"dense":8951,"efloat":8952,"fft":8953,"gb":8954,"gence":8955,"jar":8956,"mmal":8957,"osed":8958,"pb":8959,"turtle":8960,"vid":8961,"yon":8962,"}),":8963,"³n":8964,"Ã³n":8965,"Ġ-------":8966,"Ġai":8967,"seek":8968,"hey":8969,"rab":8970,"Ġpres":8971,"Ġprincipal":8972,"Ġfew":8973,"Ġrecap":8974,"Ġnx":8975,"alphanumeric":8976,"Ġsong":8977,"Ġsender":8978,"Ġsalt":8979,"ctrl":8980,"third":8981,"nders":8982,"Ġ'</":8983,"Ġmse":8984,"Ġmdb":8985,"Ġmongo":8986,"Ġdrop":8987,"ĠPRI":8988,"lan":8989,"lare":8990,"lazy":8991,"Ġ\"[":8992,"Ġ\"{}":8993,"listing":8994,"look":8995,"Ġbold":8996,"ivity":8997,"Ġproduces":8998,"apes":8999,"adv":9000,"Ġlisting":9001,"romos":9002,"olor":9003,"(\"\"\"":9004,"elen":9005,"isf":9006,"':[":9007,"velo":9008,"Ġsess":9009,"ĠFrequency":9010,"ĠSGE":9011,"ĠSMTP":9012,"ĠCustom":9013,"ĠCipher":9014,"ĠCloud":9015,"imdb":9016,"Ġchose":9017,"ircu":9018,"Ġparallel":9019,"odo":9020,"odom":9021,"ĠAR":9022,"perm":9023,"ĠLink":9024,"ĠLIM":9025,"urllib":9026,"Rev":9027,"Ġ43":9028,"ĠsortList":9029,"Ġlearn":9030,"ĠMock":9031,"bool":9032,"lify":9033,"ourse":9034,"splitlines":9035,"roots":9036,"Ġtimedelta":9037,"ĠUN":9038,"ĠUBUNTU":9039,"\"]]":9040,"oise":9041,"bins":9042,"Ġapps":9043,"Ġstartapp":9044,"figure":9045,"Ġextension":9046,"INDEX":9047,"ĠValid":9048,"Ġ201":9049,"Ġmydb":9050,"Ġloops":9051,"Profile":9052,"REQ":9053,"Toe":9054,"presentation":9055,"ALLED":9056,"Ġinteract":9057,"Ġinteractive":9058,"uffman":9059,"Ġtopics":9060,"unctools":9061,"Ġ','":9062,"Ġtransformation":9063,"svc":9064,"Ġcapture":9065,"Ġcontiguous":9066,"connected":9067,"noun":9068,"ACCESS":9069,"Dictionary":9070,"Ġidentifier":9071,"topics":9072,"Ġplaces":9073,"Ġtagged":9074,"MaxScaler":9075,"Ġregistration":9076,"many":9077,"manifest":9078,"ĠPreprocessing":9079,"ISH":9080,"Ġguest":9081,"Ġfilenames":9082,"Ġpacket":9083,"projects":9084,"MAP":9085,"Ġspent":9086,"Ġspot":9087,"rance":9088,"Ġworks":9089,"PATTERN":9090,"CDF":9091,"Ġscissors":9092,"LIST":9093,"lineno":9094,"APPS":9095,"Learn":9096,"Ġreceives":9097,"ĠResource":9098,"ĠChange":9099,"Interrupt":9100,"Indices":9101,"releaseDir":9102,"plaintext":9103,"Ġ'*'":9104,"Ġrefresh":9105,"Ġdevelopment":9106,"publisher":9107,"PyTango":9108,"izza":9109,"Ġvisualize":9110,"Activation":9111,"funcs":9112,"percentage":9113,"staticmethod":9114,"ĠColumn":9115,"ĠEngine":9116,"ĠMinMaxScaler":9117,"Ġrecommendations":9118,"Ġpayload":9119,"CvmfsProbe":9120,"(\"*\",":9121,"ĠLibrary":9122,"Ġsummarize":9123,"Spider":9124,"=======":9125,"icious":9126,"Ġlegend":9127,"Ġimaginary":9128,"getElementText":9129,"Ġcoeffs":9130,"ĠBankAccount":9131,"romosome":9132,"ircuit":9133,"ĠLIMIT":9134,"$\",":9135,")}')":9136,",.":9137,".{":9138,"72":9139,":'\\":9140,"=\"\"":9141,"AF":9142,"AUTH":9143,"Block":9144,"Cl":9145,"Dif":9146,"Day":9147,"Document":9148,"Details":9149,"Gen":9150,"Import":9151,"Kerf":9152,"Let":9153,"MARY":9154,"Pri":9155,"Pattern":9156,"Paper":9157,"PACE":9158,"RUN":9159,"Rank":9160,"Sw":9161,"Work":9162,"XI":9163,"bc":9164,"cles":9165,"cmap":9166,"ever":9167,"ears":9168,"hape":9169,"jid":9170,"jpg":9171,"kely":9172,"mango":9173,"opy":9174,"pca":9175,"pins":9176,"slow":9177,"sink":9178,"yhat":9179,"zilla":9180,"Ð·":9181,"çļ":9182,"Ġttk":9183,"Ġamazing":9184,"stablish":9185,"enabled":9186,"Ġptr":9187,"Ġcampaign":9188,"Ġfirmware":9189,"Ġreally":9190,"Ġrexi":9191,"Ġsix":9192,"Ġsaf":9193,"ctl":9194,"lider":9195,"Ġmight":9196,"Ġdy":9197,"ĠPan":9198,"ĠPaper":9199,"ĠPascal":9200,"Ġwal":9201,"logs":9202,"union":9203,"untered":9204,"unnel":9205,"ric":9206,"rist":9207,"Ġbill":9208,"Ġbasket":9209,"Ġstrength":9210,"Ġ120":9211,"Ġ[])":9212,"Ġllist":9213,"Ġproc":9214,"))/(":9215,"Ġ({":9216,"ilename":9217,"maket":9218,"cox":9219,"izations":9220,"ĠFraction":9221,"ĠForti":9222,"Ġcourses":9223,"dataframe":9224,"Ġconversation":9225,"ĠSc":9226,"ĠClean":9227,"Ġhaving":9228,"Ġdemonstr":9229,"])[":9230,"],'":9231,"ĠmaxElement":9232,"Ġmaximize":9233,"matmul":9234,"Ġvname":9235,"Ġexperience":9236,"ĠBlog":9237,"problems":9238,"ĠGroup":9239,"Ġlock":9240,"='',":9241,"extended":9242,"Ġtexto":9243,"weet":9244,"fession":9245,"female":9246,"Def":9247,"trip":9248,"Ġends":9249,"Ġ784":9250,"sublist":9251,"Ġscn":9252,"Ġscramble":9253,"Ġvals":9254,"venue":9255,"Ġenum":9256,"aming":9257,"boardInterrupt":9258,"ATED":9259,"ETHO":9260,"ĠĠĠĠĠĠĠĠĠĠĠĠĠĠĠĠĠĠĠĠĠĠĠĠĠĠĠĠĠĠĠĠĠĠĠĠĠĠĠĠĠĠĠĠĠĠĠĠ":9261,"ised":9262,"ORS":9263,"Ġ\",\"":9264,"Ġgrass":9265,"Ġoverall":9266,"Ġreadability":9267,"internal":9268,"Ġscrapes":9269,"Ġlight":9270,"parseDOM":9271,"ĠYour":9272,"REAM":9273,"REXI":9274,"tagged":9275,"Ġmaintain":9276,"unds":9277,"configuration":9278,"centers":9279,"ĠLicensed":9280,"Ġartificial":9281,"background":9282,"Ġconfigure":9283,"Ġstatements":9284,"inside":9285,"Ġperforming":9286,"Ġstocks":9287,"ĠSetup":9288,"NAM":9289,"iteritems":9290,"itertools":9291,"Ġcompletion":9292,"arguments":9293,"Ġloading":9294,"ĠÐ¿":9295,"Ġadjust":9296,"authentic":9297,"Ġmodes":9298,"Ġshows":9299,"Ġnumeral":9300,"changes":9301,"192":9302,"784":9303,"Unique":9304,"Ġplaying":9305,"afer":9306,"/'+":9307,"decision":9308,"Ð¸Ð½":9309,"ĠMessage":9310,"dicate":9311,"ĠMovie":9312,"mnist":9313,"OPY":9314,"Ġgeneration":9315,"++)":9316,"ĠStock":9317,"Ġassigned":9318,"Ġdimensional":9319,"published":9320,"Ġheapq":9321,"payment":9322,"Ġrolling":9323,"THON":9324,"Ġreminder":9325,"mediate":9326,"ĠUSA":9327,"Store":9328,"Ġapplications":9329,"Ġstrip":9330,"ĠMAX":9331,"Ġterminal":9332,"-]+@":9333,"Ġvertices":9334,"Location":9335,"Ġsigmoid":9336,"Month":9337,"Ġtickets":9338,"Ġpseud":9339,"ography":9340,"ĠGenerating":9341,"Coding":9342,"AutoField":9343,"Ġlinestylez":9344,"orizon":9345,"ummies":9346,"Unknown":9347,"çļĦ":9348,"*',":9349,"/}":9350,"93":9351,"94":9352,">,":9353,"?':":9354,"AI":9355,"Bound":9356,"Black":9357,"Cent":9358,"Cho":9359,"City":9360,"Come":9361,"Campaign":9362,"DL":9363,"Domain":9364,"Ep":9365,"Gre":9366,"HP":9367,"Icon":9368,"JUN":9369,"Mode":9370,"NC":9371,"Pep":9372,"Packet":9373,"Sk":9374,"Spa":9375,"ace":9376,"amble":9377,"bro":9378,"dx":9379,"fh":9380,"fleet":9381,"floor":9382,"gold":9383,"hs":9384,"lus":9385,"large":9386,"nor":9387,"npy":9388,"natural":9389,"rs":9390,"rst":9391,"slug":9392,"scope":9393,"void":9394,"widget":9395,"you":9396,"}',":9397,"Ðº":9398,"Ð¿":9399,"Ġtxt":9400,"station":9401,"erial":9402,"ato":9403,"Ġ=\"":9404,"Ġps":9405,"Ġfun":9406,"Ġins":9407,"Ġrecur":9408,"Ġrecipient":9409,"align":9410,"Ġsensor":9411,"ctet":9412,"mem":9413,"Ġ').":9414,"Ġ'').":9415,"Ġdat":9416,"Ġdct":9417,"Ġdns":9418,"Ġdummy":9419,"ĠPig":9420,"ĠPrime":9421,"Ġet":9422,"Ġ\"$":9423,"uling":9424,"Ġblob":9425,"Ġstill":9426,"Ġgive":9427,"Ġlu":9428,"apt":9429,"apache":9430,"edges":9431,"('#":9432,"mach":9433,"verify":9434,"qui":9435,"quire":9436,"');":9437,"ĠFilter":9438,"Ġcook":9439,"Ġ-(":9440,"ĠSome":9441,"ĠStop":9442,"ĠSolve":9443,"concat":9444,"rench":9445,"Ġxor":9446,"Ġpara":9447,"pow":9448,"ĠImplement":9449,"ĠNO":9450,"ĠNow":9451,"ĠNatural":9452,"plug":9453,"arture":9454,"ĠAff":9455,"ĠActiv":9456,"matched":9457,"ĠDraw":9458,"Ġ[];":9459,"Real":9460,"ibling":9461,"ĠBAS":9462,"ĠGiven":9463,"hobb":9464,"ĠMi":9465,"Ġloan":9466,"trained":9467,"Ġui":9468,"ĠEN":9469,"Ġsubtree":9470,"([])":9471,"Ġ{})":9472,"Dev":9473,"ĠUSE":9474,"minimize":9475,"ĠWhat":9476,"ĠReact":9477,"Ġquit":9478,"Ġquote":9479,"greetings":9480,"nested":9481,"Ġneuron":9482,"outliers":9483,"Ġ72":9484,"Ġ78":9485,"Ġtrained":9486,"ĠHand":9487,"STREAM":9488,"Student":9489,"Ġperms":9490,"Ġscen":9491,"argsort":9492,"PIPE":9493,"jsonify":9494,"Ġfeel":9495,"ĠĠĠĠĠĠĠĠĠĠĠĠĠĠĠĠĠĠĠĠĠĠĠĠĠĠĠĠĠĠĠĠĠĠĠĠĠĠĠĠĠĠĠĠĠĠĠĠĠĠĠ":9496,"templates":9497,"Ġrobo":9498,"grad":9499,"dition":9500,"aggreg":9501,"Provide":9502,"Projection":9503,"ĠContact":9504,"])))":9505,"Ġposter":9506,"which":9507,"whitespace":9508,"CTYPE":9509,"requests":9510,"Ġimplementing":9511,"{}\".":9512,"linked":9513,"####################################":9514,"Ġ-->":9515,"ĠCalculates":9516,"ireless":9517,"...')":9518,"duction":9519,"genome":9520,"Exec":9521,"Expression":9522,"Explain":9523,"111":9524,"mium":9525,"generated":9526,"Ġhostname":9527,"sides":9528,"insertion":9529,"ĠrenderStack":9530,"Ġremotes":9531,"Ġbackup":9532,"Ġswitch":9533,"ĠÐ¸":9534,"optimal":9535,"Ġ'/':":9536,"DOCTYPE":9537,"12345":9538,"Ġeditable":9539,"Ġapprox":9540,"Ġcloud":9541,"Ġconstant":9542,"Ġ404":9543,"ĠDecision":9544,"contin":9545,"Ġhistorical":9546,"Ġ\"-\"":9547,"ĠChart":9548,"lapse":9549,"cbi":9550,"Percent":9551,"Postfix":9552,"ĠISBN":9553,"HTTPServer":9554,"Ð¾Ð²":9555,"break":9556,"Ġconsists":9557,"Headers":9558,"ĠServer":9559,"Ġindicates":9560,"writerow":9561,"Ġexecuted":9562,"ĠAttribute":9563,"ĠDefaults":9564,"Ġhyperparameters":9565,"Improve":9566,"BUTTON":9567,"ĠLambda":9568,"Ġpermissions":9569,".##....":9570,"PASSWORD":9571,"FEAT":9572,"forecastsDict":9573,"DITION":9574,"Ġsatisf":9575,"reduce":9576,"affer":9577,"Ġbehavior":9578,"Ġencountered":9579,"ĠPRIMARY":9580,"maketrans":9581,"ETHOD":9582,"orizontal":9583,"hobbies":9584,"%%":9585,",)":9586,",)))":9587,".),":9588,"BS":9589,"Choose":9590,"Enum":9591,"EMAIL":9592,"Filter":9593,"James":9594,"OPT":9595,"Play":9596,"RING":9597,"TT":9598,"That":9599,"Vs":9600,"Var":9601,"WE":9602,"_(":9603,"ags":9604,"bad":9605,"bow":9606,"brand":9607,"bstract":9608,"circumference":9609,"dct":9610,"dummies":9611,"evalu":9612,"fr":9613,"fold":9614,"father":9615,"jet":9616,"liter":9617,"pper":9618,"pressed":9619,"principal":9620,"rule":9621,"ruby":9622,"sru":9623,"sudoku":9624,"uit":9625,"vance":9626,"vbox":9627,"votes":9628,"wra":9629,"xis":9630,"xff":9631,"yp":9632,"}{":9633,"Ñħ":9634,"æį":9635,"æľ":9636,"Ġ!":9637,"Ġ(),":9638,"Ġ------------------------------------------------------------------------":9639,"ĠÑģ":9640,"Ġamong":9641,"stit":9642,"ernet":9643,"attach":9644,"enable":9645,"Ġfully":9646,"Ġincoming":9647,"Ġspre":9648,"Ġsports":9649,"ctr":9650,"liance":9651,"limin":9652,"Ġ'@":9653,"Ġdid":9654,"ĠPri":9655,"Ġ\"?":9656,"une":9657,"ulk":9658,"Ġbmi":9659,"Ġ###":9660,"Ġstory":9661,"chr":9662,"Ġproxy":9663,"espa":9664,"ada":9665,"adcast":9666,"Ġprintout":9667,"ilon":9668,"Ġarmstrong":9669,"(\"--":9670,"idl":9671,"Ġseed":9672,"Ġsell":9673,"Ġcome":9674,"Ġcoupon":9675,"Ġconcept":9676,"Ġconversion":9677,"ĠScissors":9678,"ĠCan":9679,"ĠCOPY":9680,"abra":9681,"conv":9682,"Ġhal":9683,"Ġhapp":9684,"ĠIO":9685,"pypi":9686,"ĠLatin":9687,"Refactor":9688,"Ġwhitespaces":9689,"Ġexport":9690,"ĠBoston":9691,"provider":9692,"Ġbea":9693,"Ġbecome":9694,"ĠOUT":9695,"life":9696,"timeline":9697,"Ġrc":9698,"ĠrRNA":9699,"ignore":9700,"share":9701,"Initialize":9702,"parsers":9703,"Ġwebsites":9704,"ĠUI":9705,"uradio":9706,"ocut":9707,"ills":9708,"Ġfaces":9709,"placing":9710,"ensus":9711,"ensors":9712,"club":9713,"osite":9714,"Ġparsing":9715,"avutil":9716,"ĠVisual":9717,"ETING":9718,"Ġtokenized":9719,"temperatures":9720,"ĠJo":9721,"')))":9722,"Ġmyproject":9723,"LEFT":9724,"Ġsuits":9725,"spent":9726,"Ġmeans":9727,"ĠStationB":9728,"Chain":9729,"Ġmultiplies":9730,"Ġparticle":9731,"Method":9732,"employer":9733,"undant":9734,"Ġodds":9735,"Ġnote":9736,"Ġphrases":9737,"Ġtranslate":9738,"ĠAddition":9739,"[:,-":9740,"pipe":9741,"ĠGenerates":9742,"Ġverbs":9743,"Files":9744,"Ġsnippets":9745,"ĠreversedString":9746,"defaults":9747,"polygon":9748,"Ġgoing":9749,"prior":9750,"SERVER":9751,"================================================":9752,"sym":9753,"Cannot":9754,"ĠMultiply":9755,"ĠImports":9756,"Subsequence":9757,"Ġboto":9758,"Ġassistant":9759,"Ġ'/'":9760,"Codes":9761,"PTY":9762,"\\.[":9763,"confirm":9764,"Ġsignature":9765,"domains":9766,"Ġpoll":9767,"Ġpolygon":9768,"ĠMyClass":9769,"Ġexplo":9770,"ĠPassword":9771,"FFFF":9772,"activespa":9773,"Ġreceiver":9774,"ĠResponse":9775,"pipenv":9776,"FIEL":9777,"ĠEnter":9778,"Attribute":9779,"Ġalias":9780,"Ġaliases":9781,"bedfield":9782,"bedrooms":9783,"warnings":9784,"ĠPostgreSQL":9785,"Ġpieces":9786,"Ġgems":9787,"multiple":9788,"Curr":9789,"ĠMaximum":9790,"hotspot":9791,"equations":9792,"Ġinvoice":9793,"globals":9794,"chool":9795,"giar":9796,"repeating":9797,"Ġobtained":9798,"RESP":9799,"configured":9800,"supported":9801,"Ġredmine":9802,"fasta":9803,"ĠConfigure":9804,"BOARD":9805,"mongodb":9806,"yaml":9807,"ĠScrape":9808,"ĠGradient":9809,"sembly":9810,"ĠPorterStemmer":9811,"orama":9812,"Ġfetches":9813,"crawler":9814,"ï¼Į":9815,"Automate":9816,"Ġvocabulary":9817,"Complete":9818,"Memory":9819,"management":9820,"LinkedList":9821,"æķ°æį":9822,"Layout":9823,"ĠDAMA":9824,"BayesClassifier":9825,"IgnorePep":9826,"veloper":9827,"Difference":9828,"NAMES":9829,"Ġpseudocode":9830,"ĠBASIS":9831,"activespaces":9832,"æķ°æį®":9833,"'^":9834,".\"]":9835,".\".":9836,"43":9837,"51":9838,"52":9839,">{":9840,">{}":9841,"Ag":9842,"Act":9843,"Bl":9844,"BST":9845,"Best":9846,"Bubble":9847,"Browser":9848,"BACK":9849,"Cre":9850,"CAS":9851,"GR":9852,"Global":9853,"Harry":9854,"Mary":9855,"OO":9856,"Off":9857,"PAR":9858,"Popen":9859,"Right":9860,"Rai":9861,"TL":9862,"XC":9863,"]}')":9864,"aigns":9865,"border":9866,"bye":9867,"bag":9868,"cated":9869,"cgi":9870,"cHelper":9871,"dy":9872,"epochs":9873,"ffe":9874,"fruits":9875,"hg":9876,"ior":9877,"men":9878,"mus":9879,"ned":9880,"pend":9881,"pascal":9882,"sizer":9883,"samp":9884,"salt":9885,"tensor":9886,"ua":9887,"ztree":9888,"zoom":9889,"}%":9890,"}-\\":9891,"Ð±":9892,"ÑĮ":9893,"Ġmp":9894,"into":9895,"invert":9896,"Ġtip":9897,"Ġagre":9898,"ston":9899,"stra":9900,"ening":9901,"Ġima":9902,"Ġfout":9903,"Ġinorder":9904,"lector":9905,"Ġremain":9906,"Ġrepository":9907,"alnum":9908,"rols":9909,"Ġsun":9910,"members":9911,"Ġok":9912,"Ġmoney":9913,"Ġdue":9914,"Ġdump":9915,"Ġwrap":9916,"Ġever":9917,"Ġeuclidean":9918,"Ġ\"&":9919,"Ġ\"'":9920,"rial":9921,"Ġball":9922,"Ġbcharge":9923,"Ġstrace":9924,"anchor":9925,"Ġgain":9926,"Ġgini":9927,"Ġ[(\"":9928,"chatbot":9929,"usd":9930,"))[":9931,"))):":9932,"Ġprinted":9933,"('_":9934,"ĠTry":9935,"resolve":9936,"courses":9937,"Ġ2000":9938,"Ġdefer":9939,"')],":9940,"ithmet":9941,"stringLength":9942,"ĠFernet":9943,"appid":9944,"untu":9945,"']=":9946,"']).":9947,"fromkeys":9948,"Ġusr":9949,"absol":9950,"ĠIMPLIED":9951,"pause":9952,"ĠNormalize":9953,"ĠmaxValue":9954,"vised":9955,"mos":9956,"moving":9957,"matized":9958,"pyramid":9959,"Ġvers":9960,"ĠLp":9961,"ĠLongest":9962,"testing":9963,"serted":9964,"ĠDialog":9965,"acl":9966,"Ġ41":9967,"preferences":9968,"Ġexceptions":9969,"ĠBack":9970,"ĠBlock":9971,"proc":9972,"Ġkeybox":9973,"ĠtextTo":9974,"inputString":9975,"timezone":9976,"Ġunders":9977,"ĠEnum":9978,"Ġmoving":9979,"Ġcompress":9980,"Ġcompliance":9981,"...\")":9982,"tribs":9983,"ĠWH":9984,"ĠRule":9985,"grey":9986,"neu":9987,"ĠHanoi":9988,"StationA":9989,"dbname":9990,"Ġschema":9991,"Connect":9992,"ĠInt":9993,"ĠInst":9994,"Ġtempor":9995,"Ġserialize":9996,"osu":9997,"ighted":9998,"Ġshuup":9999}